[QUESTION]
[PAD]
[UNK]
[CLS]
[SEP]
[MASK]
!
"
#
$
%
&
'
(
)
*
+
,
-
.
/
0
1
2
3
4
5
6
7
8
9
:
;
<
=
>
?
@
A
B
C
D
E
F
G
H
I
J
K
L
M
N
O
P
Q
R
S
T
U
V
W
X
Y
Z
[
\
]
^
_
`
a
b
c
d
e
f
g
h
i
j
k
l
m
n
o
p
q
r
s
t
u
v
w
x
y
z
{
|
}
~
¤
§
¨
©
®
°
±
²
³
´
µ
¶
·
¹
º
¼
½
É
Ö
×
Ø
Ü
ß
à
á
â
ä
æ
ç
è
é
ê
ë
í
ñ
ó
ô
ö
÷
ø
ú
ü
ı
ž
ː
˙
˚
˝
·
Δ
Ι
Λ
Π
Φ
Ω
α
β
γ
δ
θ
κ
μ
ν
ο
π
φ
χ
А
В
Д
Е
И
К
Л
М
Н
О
Р
С
Т
а
в
г
д
е
з
и
й
к
л
м
н
о
п
р
с
т
у
х
ч
ь
я
ᄀ
ᄂ
ᄃ
ᄅ
ᄆ
ᄉ
ᄋ
ᄌ
ᄒ
ᅡ
ᅢ
ᅥ
ᅦ
ᅩ
ᅳ
ᅵ
ᆞ
ᆫ
ᆯ
ᆼ
‐
–
—
―
‘
’
‛
“
”
•
‣
․
‥
…
‧
‰
‱
′
″
※
⁺
₁
₂
₃
₄
€
℃
ℓ
™
Ω
Å
⅓
⅔
Ⅰ
Ⅱ
Ⅲ
Ⅳ
Ⅴ
Ⅵ
Ⅶ
Ⅷ
Ⅸ
Ⅹ
ⅹ
←
↑
→
↓
↔
⇒
⇔
⇨
∆
∇
∎
∙
√
∞
∥
∧
∨
∼
∽
≒
≠
≤
≥
≪
≫
⊙
⋅
①
②
③
④
⑤
⑥
⑦
⑧
⑨
⑩
⑪
⑫
⑬
⑭
⑮
⑴
⑵
⑶
⑷
⑸
Ⓡ
ⓐ
ⓑ
ⓒ
ⓓ
ⓔ
ⓝ
ⓡ
⓵
⓶
─
━
│
┃
┌
└
├
┤
┬
┴
┼
▉
▋
▌
▍
▒
■
□
▣
▦
▨
▪
▮
▲
△
▴
▵
▶
▷
▸
►
▼
▽
◀
◆
◇
◈
◉
○
◎
●
◐
◦
◯
★
☆
☎
☏
☐
☜
☞
♀
♂
♠
♡
♣
♥
♦
♧
♩
♪
♬
♭
✓
✔
❍
❘
❚
❶
➀
➊
➋
➌
➍
➢
➤
⟶
⦁
、
。
〃
〇
〈
〉
《
》
「
」
『
』
【
】
〓
〔
〕
〜
〮
あ
い
う
え
お
か
が
き
く
け
げ
こ
ご
さ
し
じ
す
ず
せ
そ
た
だ
ち
っ
つ
て
で
と
ど
な
に
ね
の
は
ば
ひ
び
ふ
ま
み
む
め
も
ゃ
や
ゆ
よ
ら
り
る
れ
ろ
わ
を
ん
ア
イ
ウ
オ
カ
キ
ク
ケ
コ
サ
シ
ジ
ス
タ
ダ
チ
ッ
テ
ト
ド
ニ
ノ
ハ
バ
ビ
フ
マ
ミ
ム
メ
ャ
ョ
ラ
リ
ル
レ
ロ
ン
ヶ
・
ー
ㄱ
ㄲ
ㄴ
ㄷ
ㄸ
ㄹ
ㅁ
ㅂ
ㅃ
ㅅ
ㅆ
ㅇ
ㅈ
ㅉ
ㅊ
ㅋ
ㅌ
ㅍ
ㅎ
ㅏ
ㅐ
ㅑ
ㅓ
ㅔ
ㅕ
ㅖ
ㅗ
ㅛ
ㅜ
ㅠ
ㅡ
ㅣ
ㅤ
ㅱ
ㅿ
ㆍ
㈔
㈜
㉠
㉡
㉢
㉣
㉤
㉮
㉯
㉰
㎃
㎈
㎉
㎍
㎎
㎏
㎐
㎑
㎒
㎓
㎕
㎖
㎗
㎘
㎚
㎛
㎜
㎝
㎞
㎟
㎠
㎡
㎢
㎣
㎤
㎥
㎦
㎧
㎩
㎫
㎰
㎲
㎳
㎷
㎸
㎹
㎼
㎽
㎾
㎿
㏃
㏄
㏅
㏈
㏊
㏏
㏐
㏓
㏖
㏙
㏜
一
丁
七
万
丈
三
上
下
不
丑
且
世
丘
丙
业
东
丞
中
串
丸
丹
主
丽
乃
久
之
乎
乏
乐
乘
乙
九
乞
也
乳
乾
亂
了
予
事
二
于
云
互
五
井
亞
亡
亢
交
亥
亦
亨
享
京
亭
亮
人
什
仁
仇
今
介
仍
仔
仕
他
付
仙
代
令
以
仰
仲
件
任
份
企
伊
伍
伎
伏
伐
休
会
伯
伴
伸
似
伽
佃
但
位
低
住
佐
佑
何
余
佛
作
你
佩
佳
佾
使
來
侈
例
侍
供
依
侮
侯
侵
侶
便
係
促
俄
俊
俏
俑
俗
保
俠
信
修
俯
俱
俳
俸
倂
倉
個
倍
們
倒
候
倚
借
倡
値
倪
倫
倭
倻
假
偈
偉
偏
偕
做
停
健
側
偶
傅
傍
傑
傘
備
催
傭
傲
傳
債
傷
傾
僉
像
僑
僕
僞
僧
價
僻
儀
億
儉
儒
償
優
儲
允
元
兄
充
兆
先
光
克
兌
免
兎
兒
党
兢
入
內
全
兩
兪
八
公
六
兮
共
兵
其
具
典
兼
冀
内
円
冊
再
冒
冠
冥
冬
冰
冶
冷
准
凉
凋
凌
凍
凝
凡
凰
凱
凶
凸
凹
出
函
刀
分
切
刊
刑
列
刘
初
判
別
利
刮
到
制
刷
券
刹
刺
刻
則
削
剋
剌
前
剖
剛
剝
剩
剪
副
割
創
劃
劇
劉
劍
劑
劒
力
功
加
劣
助
努
劫
勁
勅
勇
勉
勒
動
勘
務
勛
勝
勞
募
勢
勤
勳
勵
勸
勿
包
匕
化
北
匙
匠
匡
匣
匪
匯
匹
区
匿
區
十
千
升
午
半
卍
华
卑
卒
卓
協
南
博
卜
卞
占
卦
卯
印
危
却
卵
卷
卽
卿
厄
厓
厚
原
厥
厦
厭
去
參
又
叉
及
友
反
叔
取
受
叛
叡
叢
口
古
句
叩
只
叫
召
可
台
叱
史
右
司
吃
各
合
吉
同
名
后
吏
吐
向
君
吟
吠
否
含
吳
吸
吹
吼
吾
呂
呈
告
呑
周
呪
味
呵
呼
命
咀
和
咸
哀
品
哈
哉
員
哥
哨
哭
哲
哺
唄
唆
唐
唯
唱
啄
商
問
啐
啓
啞
喀
善
喆
喉
喚
喜
喝
喩
喪
喫
喬
單
嗅
嗜
嗣
嘆
嘉
嘗
嘯
嘲
器
噴
嚆
嚴
嚼
囊
囚
四
回
因
团
困
囹
固
国
圃
圄
圈
國
圍
園
圓
圖
團
土
在
圭
地
圳
址
坂
均
坊
坎
坐
坑
坡
坤
坦
坪
垂
垈
型
垓
垠
垢
垣
埋
城
域
執
培
基
埼
堀
堂
堅
堆
堡
堤
堧
堪
堯
堰
報
場
堺
塊
塋
塑
塔
塗
塘
塚
塞
塡
塵
塼
塾
境
墅
墓
增
墟
墨
墩
墮
墳
墻
壁
壇
壑
壓
壘
壙
壞
壤
士
壬
壯
壹
壺
壽
夏
夕
外
多
夜
夢
大
天
太
夫
央
失
夷
夾
奇
奈
奉
奎
奏
契
奔
奕
奚
奠
奢
奧
奪
奬
奭
奮
女
奴
奸
好
如
妃
妄
妊
妓
妖
妙
妹
妻
妾
始
姐
姑
姓
委
姙
姚
姜
姦
姬
姻
姿
威
娘
娛
娜
娟
娥
娼
婁
婆
婚
婢
婦
媒
媛
媤
嫁
嫌
嫡
嫦
嬪
子
孔
字
存
孚
孜
孝
孟
季
孤
学
孩
孫
學
宁
宅
宇
守
安
宋
完
宏
宗
官
宙
定
宜
宝
客
宣
室
宦
宮
宰
害
宴
宵
家
容
宿
寂
寃
寄
寅
密
寇
富
寐
寒
寓
察
寡
寢
實
寧
寨
審
寫
寬
寮
寵
寶
寸
寺
封
射
將
專
尉
尊
尋
對
導
小
少
尖
尙
尤
就
尸
尹
尺
尻
尼
尾
尿
局
居
屈
屋
屍
展
屛
屠
層
履
屬
屯
山
屹
岐
岑
岡
岩
岬
岳
岸
峙
峨
峯
峰
峴
島
峻
峽
崇
崎
崑
崔
崖
崗
崙
崛
崩
嵌
嵐
嵩
嶋
嶠
嶺
嶼
嶽
巍
巖
川
州
巡
巢
工
左
巧
巨
巫
差
己
已
巳
巴
巷
巽
巾
市
布
帆
希
帖
帙
帛
帝
帥
師
席
帳
帶
常
帽
幀
幅
幇
幌
幕
幟
幡
幢
幣
干
平
年
幷
幸
幹
幻
幼
幽
幾
广
庄
床
序
底
店
庚
府
度
座
庫
庭
庵
庶
康
庸
庾
廈
廉
廊
廖
廚
廛
廟
廠
廢
廣
廬
廳
延
廷
建
廻
开
弁
弄
弊
式
弓
弔
引
弗
弘
弟
张
弦
弩
弱
張
强
弼
彈
彌
彎
彙
形
彦
彩
彪
彫
彬
彭
彰
影
役
彼
往
征
待
律
後
徐
徑
徒
得
徙
從
御
復
循
微
徵
德
徹
徽
心
必
忌
忍
忖
志
忘
忙
忠
快
念
忽
怒
思
怠
怡
急
性
怨
怪
恐
恒
恕
恢
恣
恤
恥
恨
恩
恭
息
悅
悉
悌
悔
悖
悟
悠
患
悲
悳
悶
悼
情
惑
惜
惟
惠
惡
惱
想
惺
惻
愁
愍
意
愚
愛
感
愧
愼
慈
態
慌
慕
慘
慢
慣
慧
慨
慮
慰
慶
慷
慽
慾
憂
憎
憐
憑
憚
憤
憲
憶
憾
懈
應
懲
懷
懸
懺
懼
懿
戀
戈
戊
戌
戍
戎
成
我
戒
或
戚
戰
戱
戴
戶
戸
房
所
扁
扇
扈
扉
手
才
打
托
扶
批
承
技
抄
把
抑
抒
投
抗
折
抛
报
抱
抹
押
抽
拂
拈
拉
拍
拒
拓
拔
拘
拙
招
拜
括
拱
拳
拷
拾
拿
持
指
按
挑
振
挺
挽
捉
捐
捕
捨
捲
捷
掃
授
掌
排
掘
掛
採
探
接
控
推
掩
描
提
揚
換
握
揮
援
揷
損
搏
搔
搖
搜
携
摘
摠
摩
摸
撒
撞
撤
撥
撫
播
撮
撰
撲
擁
擇
擊
操
擎
擔
據
擧
擬
擲
擴
擾
攀
攝
支
收
改
攻
放
政
故
效
敍
敎
敏
救
敗
教
敢
散
敦
敬
整
敵
敷
數
敾
斂
文
斌
斑
斗
料
斜
斤
斥
斧
斬
斯
新
斷
方
於
施
旁
旅
旋
旌
族
旗
无
旣
日
旦
旨
早
旬
旭
旱
旺
昆
昇
昊
昌
明
昏
易
昔
星
映
春
昧
昨
昭
是
昱
昻
時
晃
晉
晋
晏
晝
晟
晦
晨
晩
普
景
晴
晶
晷
智
暇
暉
暎
暑
暖
暗
暢
暫
暮
暴
曆
曉
曙
曜
曝
曠
曰
曲
曳
更
書
曹
曺
曼
曾
替
最
會
月
有
朋
服
朔
朗
望
朝
期
木
未
末
本
札
朱
朴
机
朽
杆
杉
李
杏
材
村
杓
杖
杜
杞
束
来
杨
杭
杯
杰
東
松
板
析
枕
林
枚
果
枝
枯
架
枾
柄
柏
某
染
柔
柩
柯
柱
柳
柴
柵
査
栓
栖
栗
校
栢
株
核
根
格
栽
桂
桃
案
桐
桑
桓
桶
梁
梅
梓
條
梧
梨
梵
梶
棄
棋
棍
棒
棗
棘
棚
棟
棠
棧
森
棲
棺
植
椎
椒
椿
楊
楓
楚
楠
楡
業
極
楷
榜
榮
槃
構
槍
槐
槨
槪
槽
槿
樂
樊
樑
樓
標
樞
模
樣
樵
樹
樺
樽
橋
橘
機
橫
檀
檄
檜
檢
櫃
櫛
櫻
欄
權
次
欣
欲
欺
欽
款
歌
歎
歐
歡
止
正
此
步
武
歲
歷
歸
死
殃
殆
殉
殊
殖
殘
殲
段
殷
殺
殼
殿
毁
毅
毋
母
每
毒
毓
比
毖
毘
毛
毫
氏
民
氣
水
氷
永
汀
汁
求
汎
汕
汗
汚
汝
江
池
汪
汶
決
汽
汾
沁
沂
沃
沈
沐
沒
沖
沙
沛
沢
沫
河
沸
油
治
沼
沿
況
泉
泊
法
泗
泛
泡
波
泣
泥
注
泰
泳
洁
洋
洌
洑
洗
洙
洛
洞
津
洪
洲
活
洽
派
流
浙
浚
浜
浣
浦
浩
浪
浮
浴
海
浸
涅
消
涉
涌
涯
液
涵
淀
淑
淘
淚
淡
淨
淫
淮
深
淳
淵
混
淸
淺
添
清
渚
減
渠
渡
渤
渦
渫
測
渭
港
渴
游
渾
湃
湖
湘
湛
湧
湫
湯
源
準
溜
溝
溟
溢
溥
溪
溫
溶
滄
滅
滉
滋
滑
滓
滬
滯
滴
滿
漁
漂
漆
漏
演
漕
漢
漫
漱
漸
漿
潁
潑
潔
潘
潛
潟
潤
潭
潮
潰
澁
澄
澈
澎
澗
澤
澳
澹
激
濁
濃
濕
濟
濠
濤
濫
濬
濯
濱
瀆
瀉
瀋
瀑
瀚
瀛
瀟
瀧
瀨
瀾
灌
灑
灘
灣
火
灰
灸
灼
災
炎
炒
炙
炫
炭
炯
炳
炸
点
烈
烏
烙
烟
烹
烽
焉
焚
無
焦
然
煉
煌
煎
煙
煞
煥
照
煩
煮
熊
熔
熙
熟
熱
熹
燁
燃
燈
燐
燒
燕
營
燥
燦
燧
燭
燮
爆
爐
爛
爪
爭
爱
爲
爵
父
爺
爻
爽
爾
牆
片
版
牌
牒
牙
牛
牟
牡
牧
物
牲
特
牽
犧
犬
犯
狀
狂
狄
狐
狗
狡
狹
狼
猛
猪
猫
猶
猿
獄
獅
獐
獨
獲
獵
獸
獻
玄
玆
率
玉
王
玖
玩
玲
玹
珀
珉
珊
珍
珠
珥
珪
班
現
球
理
琉
琛
琢
琥
琦
琨
琪
琳
琴
琵
琶
琿
瑋
瑕
瑛
瑜
瑞
瑟
瑤
瑩
瑪
璃
璇
璉
璧
環
璽
璿
瓊
瓚
瓜
瓢
瓣
瓦
瓷
甁
甄
甑
甕
甘
甚
甛
生
産
用
甫
田
由
甲
申
电
男
甸
町
界
畏
畑
畓
畔
留
畜
畝
畢
略
番
畫
異
畵
當
畿
疆
疊
疎
疏
疑
疫
疲
疵
疾
病
症
痕
痛
痰
痲
痴
痼
瘀
瘡
瘦
療
癌
癒
癖
癡
癸
登
發
白
百
的
皆
皇
皐
皓
皮
盃
盆
盈
益
盒
盖
盛
盜
盞
盟
盡
監
盤
盧
目
盲
直
相
盾
省
眄
眉
看
県
眞
眠
眼
着
睛
睡
督
睦
睿
瞋
瞬
瞰
瞻
矛
矢
矣
知
矩
短
矯
石
砂
砲
破
硏
硬
硯
碁
碍
碎
碑
碗
碣
碧
碩
確
磁
磊
磋
磐
磨
磬
磯
礁
礎
示
社
祀
祇
祈
祉
祐
祕
祖
祚
祝
神
祠
祥
票
祭
祿
禁
禍
禎
福
禦
禧
禪
禮
禱
禹
禽
禾
秀
私
秉
秋
科
秒
秘
租
秦
秩
移
稀
稅
程
稔
稚
種
稱
稷
稻
稼
稽
稿
穀
穆
積
穎
穗
穡
穩
穴
究
空
穿
突
窓
窟
窩
窮
窯
竊
立
站
竝
竟
章
童
竪
竭
端
競
竹
竺
竿
笏
笑
笛
笞
笠
符
第
笹
筆
等
筋
筍
筑
筒
答
策
筠
筵
箋
箔
箕
算
箚
管
箭
箱
箴
節
範
篆
篇
築
篠
篤
篪
簡
簾
簿
籌
籍
籠
籬
米
粉
粒
粗
粘
粟
粥
粧
粮
粹
精
糊
糖
糞
糧
系
紀
約
紅
紋
納
紐
純
紗
紘
紙
級
紛
素
紡
索
紫
累
細
紳
紹
紺
終
絃
組
結
絡
給
統
絲
絶
絹
綏
經
綜
綠
綬
維
綱
網
綴
綺
綿
緊
緖
線
緣
編
緩
緯
練
緻
縛
縣
縫
縮
縱
總
績
繁
織
繡
繩
繪
繫
繼
纂
續
纓
纖
红
缺
网
罔
罪
置
罰
署
罷
羅
羈
羊
美
羞
群
羨
義
羲
羹
羽
翁
翊
翎
習
翔
翟
翠
翡
翰
翼
耀
老
考
者
耆
而
耐
耕
耘
耳
耶
耽
耿
聊
聖
聘
聚
聞
聯
聰
聲
職
聽
肅
肇
肉
肋
肖
肝
股
肢
肥
肩
肯
育
肺
胃
胄
背
胎
胚
胞
胡
胤
胴
胸
能
脂
脇
脈
脊
脚
脣
脫
脯
脾
腎
腐
腑
腔
腕
腦
腫
腰
腱
腸
腹
腺
膏
膚
膜
膝
膠
膳
膽
膾
臘
臟
臣
臥
臨
自
臭
至
致
臺
臼
與
興
舊
舌
舍
舒
舛
舜
舞
舟
航
舫
般
舵
舶
船
艇
艦
艮
良
艱
色
艶
艸
艾
芒
芙
芝
芥
芬
芮
芯
花
芳
芸
芹
芻
芽
苏
苑
苔
苗
苛
苟
若
苦
英
茂
范
茅
茉
茗
茨
茫
茶
茸
荀
草
荊
荒
荷
莉
莊
莖
莞
莫
菁
菅
菊
菌
菓
菜
菩
華
菱
菲
菴
菹
萊
萌
萍
萩
萬
落
葉
著
葛
董
葦
葬
葵
蒙
蒜
蒲
蒸
蒼
蓄
蓉
蓋
蓬
蓮
蔑
蔘
蔚
蔡
蔣
蔭
蔽
蕃
蕉
蕙
蕩
蕪
蕭
薄
薇
薑
薛
薦
薩
薪
薯
薰
藁
藍
藏
藝
藤
藥
藩
藪
藻
蘆
蘇
蘊
蘭
蘿
虎
虐
處
虛
虜
虞
號
虹
蚊
蛇
蛋
蛙
蛟
蜀
蜂
蜜
蝕
蝦
蝶
蝸
螂
融
螢
螳
螺
蟄
蟠
蟬
蟲
蟹
蟻
蟾
蠶
蠻
血
衆
行
衍
術
街
衙
衛
衝
衡
衢
衣
表
衫
衰
衷
袁
袋
袍
袖
被
裁
裂
裏
裕
補
裝
裨
裳
裵
裸
製
複
褒
褓
襄
襟
襲
西
要
覆
覇
見
規
覓
視
親
覺
覽
觀
角
解
觴
觸
言
訂
訃
計
訊
訌
討
訓
託
記
訟
訣
訥
訪
設
許
訴
診
註
詐
詔
評
詞
詠
試
詩
話
詳
詵
詹
誅
誌
認
誓
誕
誘
語
誠
誡
誣
誤
誦
說
誰
課
誼
調
談
請
諍
論
諡
諦
諧
諫
諭
諱
諸
諺
諾
謀
謁
謂
謄
謖
謗
謙
講
謝
謠
謨
謬
謹
證
識
譚
譜
警
譯
議
護
譽
讀
變
讐
讓
讖
讚
谷
谿
豆
豈
豊
豕
豚
象
豪
豫
豹
貊
貌
貝
貞
負
財
貢
貧
貨
販
貪
貫
責
貯
貰
貳
貴
買
貸
費
貿
賀
賃
資
賈
賊
賓
賜
賞
賠
賢
賣
賤
賦
質
賴
購
贈
贊
贓
贖
赤
赦
赫
走
赳
赴
起
超
越
趙
趣
足
趺
趾
跋
跏
距
跡
跨
路
跳
踏
踐
踰
蹄
蹟
蹴
躁
躍
身
躬
軀
車
軌
軍
軒
軟
軸
軾
較
載
輓
輔
輕
輝
輩
輪
輯
輸
輿
轉
轍
轟
辛
辣
辦
辨
辭
辯
辰
辱
農
迂
迅
迎
近
返
迦
迪
迫
述
迷
追
退
送
逃
逆
逍
透
逐
逑
途
逕
通
逝
逞
速
造
逢
連
週
進
逸
遁
遂
遇
遊
運
遍
過
道
達
違
遙
遞
遠
遣
適
遭
遮
遲
遵
遷
選
遺
遼
避
邁
還
邊
邑
邢
那
邦
邪
邱
邵
邸
郁
郊
郎
郞
郡
部
郭
郵
都
鄂
鄒
鄕
鄧
鄭
酉
酌
配
酎
酒
酬
酵
酷
酸
醉
醋
醒
醜
醫
醬
醯
釀
采
釉
釋
里
重
野
量
金
釗
釘
釜
針
釣
鈍
鈞
鈴
鈺
鈿
鉄
鉉
鉛
鉢
銀
銃
銅
銓
銘
銳
銷
鋒
鋪
鋼
錄
錐
錘
錚
錠
錢
錦
錫
錮
錯
鍊
鍋
鍛
鍮
鍵
鍼
鍾
鎌
鎔
鎖
鎬
鎭
鎰
鏃
鏞
鏡
鐘
鐵
鐸
鑄
鑑
鑛
鑫
鑿
長
門
閃
閉
開
閏
閑
閒
間
閔
閘
関
閣
閤
閥
閨
閭
閱
閻
闕
關
闡
闢
阜
阪
阮
防
阳
阿
陀
附
陈
陋
降
限
陕
陛
陝
陟
院
陣
除
陪
陰
陳
陵
陶
陸
陽
隅
隆
隊
隋
隍
階
隔
隕
隙
際
障
隣
隨
險
隱
隻
雀
雁
雄
雅
集
雉
雌
雍
雕
雖
雙
雛
雜
離
難
雨
雩
雪
雲
零
雷
電
需
震
霖
霜
霞
霧
露
霽
靈
靑
青
靖
靜
非
面
革
靴
鞋
鞍
鞠
鞭
韋
韓
韜
韩
音
韶
韻
響
頂
頃
項
順
須
頌
預
頓
領
頭
頸
頻
顆
題
額
顎
顔
願
顚
類
顧
顯
風
飄
飛
飜
食
飢
飮
飯
飼
飽
飾
餃
養
餐
餓
餘
餠
館
饌
饑
饒
饗
首
香
馨
馬
馮
馳
馴
駁
駅
駐
駒
駕
駱
駿
騎
騰
騷
驅
驕
驗
驚
驛
驪
马
骨
骸
髓
體
高
髮
鬪
鬱
鬼
魁
魂
魄
魅
魏
魔
魚
魯
鮑
鮮
鯨
鰲
鱗
鳥
鳩
鳳
鳴
鳶
鴨
鴻
鵝
鵬
鵲
鶯
鶴
鷄
鷗
鷲
鷹
鷺
鹽
鹿
麒
麓
麗
麟
麥
麴
麵
麻
黃
黎
黑
黔
默
黜
點
黨
鼎
鼓
鼠
鼻
齊
齋
齒
齡
龍
龐
龕
龜
가
각
간
갇
갈
갉
감
갑
값
갓
갔
강
갖
갗
같
갚
갛
개
객
갠
갤
갬
갭
갯
갰
갱
갸
갹
갼
걀
걍
걔
걘
거
걱
건
걷
걸
검
겁
것
겄
겅
겆
겉
겊
겋
게
겐
겔
겜
겝
겟
겠
겡
겨
격
겪
견
겯
결
겸
겹
겻
겼
경
곁
계
곗
고
곡
곤
곧
골
곪
곬
곯
곰
곱
곳
공
곶
과
곽
관
괄
괌
괏
광
괘
괜
괭
괴
괵
괸
괼
굄
굉
교
굣
구
국
군
굳
굴
굵
굶
굼
굽
굿
궁
궂
궃
궈
궉
권
궐
궜
궤
귀
귄
귈
귐
귑
귓
규
균
귤
그
극
근
귿
글
긁
금
급
긋
긍
긔
기
긱
긴
긷
길
김
깁
깃
깅
깊
까
깍
깎
깐
깔
깜
깝
깟
깠
깡
깥
깨
깬
깰
깵
깸
깹
깻
깼
깽
꺄
꺅
꺠
꺼
꺽
꺾
껀
껄
껌
껍
껏
껐
껑
께
껜
껫
껴
껸
꼈
꼍
꼐
꼬
꼭
꼰
꼴
꼼
꼽
꼿
꽁
꽂
꽃
꽈
꽉
꽌
꽐
꽝
꽤
꽥
꽹
꾀
꾄
꾐
꾸
꾹
꾼
꿀
꿇
꿈
꿉
꿋
꿍
꿎
꿔
꿨
꿩
꿰
꿴
꿸
뀄
뀌
뀐
뀔
뀜
뀝
뀨
끄
끅
끈
끊
끌
끎
끓
끔
끕
끗
끙
끝
끼
끽
낀
낄
낌
낍
낏
낑
나
낙
낚
난
낟
날
낡
낢
남
납
낫
났
낭
낮
낯
낱
낳
내
낵
낸
낼
냄
냅
냇
냈
냉
냐
냑
냔
냘
냠
냥
너
넉
넋
넌
널
넒
넓
넘
넙
넛
넜
넝
넣
네
넥
넨
넬
넴
넵
넷
넸
넹
녀
녁
년
녈
념
녑
녔
녕
녘
녜
녠
노
녹
논
놀
놈
놉
놋
농
높
놓
놔
놨
뇌
뇐
뇔
뇨
뇰
뇽
누
눅
눈
눌
눔
눕
눗
눙
눝
눠
눴
눹
뉘
뉜
뉠
뉨
뉩
뉴
뉼
늄
늉
느
늑
는
늘
늙
늠
능
늦
늪
늬
늴
니
닉
닌
닐
님
닙
닛
닝
닢
다
닥
닦
단
닫
달
닭
닮
닯
닳
담
답
닷
당
닺
닻
닿
대
댁
댄
댈
댐
댑
댓
댔
댕
댜
댱
더
덕
덖
던
덜
덞
덟
덤
덥
덧
덩
덫
덮
데
덱
덴
델
뎀
뎁
뎃
뎅
뎌
뎐
뎠
뎡
뎨
뎬
도
독
돈
돋
돌
돎
돐
돔
돕
돗
동
돛
돝
돠
돤
돼
됏
됐
되
된
될
됨
됩
됫
됬
됭
됴
두
둑
둔
둘
둠
둡
둣
둥
둬
뒀
뒈
뒤
뒷
뒹
듀
듄
듈
듐
드
득
든
듣
들
듦
듬
듭
듯
등
듸
디
딕
딘
딛
딜
딤
딥
딧
딨
딩
딪
따
딱
딴
딸
땀
땁
땃
땄
땅
땋
때
땐
땔
땜
땟
땠
땡
떄
떠
떡
떤
떨
떫
떮
떰
떱
떳
떴
떵
떻
떼
떽
뗀
뗄
뗌
뗍
뗏
뗐
뗑
또
똑
똔
똘
똠
똣
똥
똬
뙈
뙤
뚜
뚝
뚠
뚤
뚫
뚬
뚱
뛰
뛴
뛸
뜀
뜁
뜨
뜩
뜬
뜯
뜰
뜷
뜸
뜹
뜻
띄
띈
띌
띔
띕
띠
띡
띤
띨
띰
띱
띵
라
락
란
랄
람
랍
랏
랐
랑
랖
랗
래
랙
랜
랠
램
랩
랫
랬
랭
랲
랴
략
랸
럅
럇
량
러
럭
런
럴
럼
럽
럿
렀
렁
렇
레
렉
렌
렐
렘
렙
렛
렜
렝
려
력
련
렬
렴
렵
렷
렸
령
례
롄
로
록
론
롤
롬
롭
롯
롱
롸
롼
뢰
뢴
뢸
룀
룅
료
룔
룟
룡
루
룩
룬
룰
룸
룹
룻
룽
뤄
뤘
뤠
뤼
뤽
륀
륄
륌
륏
류
륙
륜
률
륨
륭
르
륵
른
를
름
릅
릇
릉
릍
릎
릫
리
릭
릮
린
릲
릳
릴
림
립
릿
링
마
막
만
많
맏
말
맑
맘
맙
맛
망
맞
맟
맡
맣
매
맥
맨
맬
맴
맵
맷
맸
맹
맺
먀
먕
머
먹
먼
멀
멈
멉
멋
멍
멎
멓
메
멕
멘
멜
멤
멥
멧
멨
멩
며
멱
면
멸
몃
몄
명
몇
몐
모
목
몫
몬
몰
몸
몹
못
몽
뫼
묀
묄
묏
묘
묜
묠
묫
무
묵
묶
문
묻
물
묽
묾
뭄
뭅
뭇
뭉
뭍
뭐
뭔
뭘
뭡
뭣
뭥
뮈
뮌
뮐
뮤
뮨
뮬
뮴
므
믄
믈
믐
믓
믜
미
믹
민
믿
밀
밈
밉
밋
밌
밍
및
밑
바
박
밖
반
받
발
밝
밞
밟
밤
밥
밧
방
밭
배
백
밴
밸
뱀
뱁
뱃
뱄
뱅
뱉
뱌
뱐
뱡
버
벅
번
벋
벌
범
법
벗
벙
벚
베
벡
벤
벧
벨
벰
벱
벳
벴
벵
벼
벽
변
별
볍
볏
볐
병
볕
볜
보
복
볶
본
볼
봄
봅
봇
봉
봐
봤
봬
뵀
뵈
뵌
뵐
뵘
뵙
뵤
뵨
부
북
분
붇
불
붉
붐
붑
붓
붕
붙
붸
뷔
뷘
뷜
뷰
뷴
뷸
븀
브
븐
블
븡
비
빅
빈
빌
빔
빕
빗
빙
빚
빛
빠
빡
빤
빨
빰
빱
빳
빴
빵
빻
빼
빽
뺀
뺄
뺌
뺍
뺏
뺐
뺑
뺨
뻐
뻑
뻔
뻗
뻘
뻣
뻤
뻥
뻬
뼈
뼉
뼘
뼛
뼝
뽀
뽁
뽄
뽈
뽐
뽑
뽕
뾰
뿅
뿌
뿍
뿐
뿔
뿜
뿡
쀼
쁘
쁜
쁠
쁨
쁩
삐
삑
삔
삘
삠
삣
삥
사
삭
삯
산
살
삵
삶
삼
삽
삿
샀
상
샅
새
색
샌
샐
샘
샙
샛
샜
생
샤
샥
샨
샬
샴
샵
샷
샹
샾
섀
섁
섄
섈
섐
섕
서
석
섞
선
섣
설
섦
섧
섬
섭
섯
섰
성
섶
세
섹
센
셀
셈
셉
셋
셌
셍
셔
셕
션
셜
셤
셥
셧
셨
셩
셰
셴
셸
솀
솅
소
속
솎
손
솔
솜
솝
솟
송
솥
솨
솽
쇄
쇠
쇤
쇨
쇳
쇼
쇽
숀
숄
숌
숍
숏
숑
수
숙
순
숟
술
숨
숩
숫
숭
숯
숱
숲
숴
쉈
쉐
쉑
쉔
쉘
쉥
쉬
쉭
쉰
쉴
쉼
쉽
쉿
슁
슈
슉
슌
슐
슘
슛
슝
스
슥
슨
슬
슭
슴
습
슷
승
시
식
신
싣
실
싫
심
십
싯
싱
싶
싸
싹
싼
쌀
쌈
쌉
쌌
쌍
쌓
쌔
쌕
쌘
쌤
쌨
쌩
쌰
썅
써
썩
썪
썬
썰
썸
썹
썼
썽
쎄
쎈
쎌
쏘
쏙
쏜
쏟
쏠
쏨
쏩
쏭
쏴
쏸
쐈
쐐
쐬
쐰
쐴
쑈
쑤
쑥
쑨
쑬
쑴
쑹
쒀
쒔
쒸
쓰
쓱
쓴
쓸
씀
씁
씌
씐
씨
씩
씬
씰
씸
씹
씻
씽
아
악
안
앉
않
알
앎
앓
암
압
앗
았
앙
앝
앞
앟
애
액
앤
앨
앰
앱
앳
앴
앵
야
약
얀
얄
얇
얌
얍
얏
양
얕
얗
얘
얜
어
억
언
얹
얻
얼
얽
엄
업
없
엇
었
엉
엊
엌
엎
에
엑
엔
엘
엠
엡
엣
엥
여
역
엮
연
열
엶
엷
염
엽
엾
엿
였
영
옅
옆
옇
예
옌
옐
옘
옙
옛
옜
오
옥
온
올
옭
옮
옳
옴
옵
옷
옹
옻
와
왁
완
왈
왐
왑
왓
왔
왕
왜
왝
왠
왬
왱
외
왼
욀
욋
요
욕
욘
욜
욤
욥
욧
용
우
욱
운
울
움
웁
웃
웅
워
웍
원
월
웜
웝
웠
웡
웨
웩
웬
웰
웸
웹
웻
웽
위
윅
윈
윌
윔
윕
윗
윙
유
육
윤
율
윰
윱
윳
융
윷
으
윽
윾
은
을
읊
음
읍
읎
읏
응
읕
읖
읗
의
읜
읠
이
익
읶
인
일
읽
잃
임
입
잇
있
잉
잊
잌
잎
자
작
잔
잖
잗
잘
잠
잡
잣
잤
장
잦
재
잭
잰
잴
잼
잽
잿
쟀
쟁
쟈
쟉
쟌
쟎
쟝
쟤
쟨
저
적
전
절
젊
젋
점
접
젓
정
젖
제
젝
젠
젤
젬
젭
젯
젱
져
젼
졌
졍
졔
졘
조
족
존
졸
좀
좁
종
좆
좇
좋
좌
좍
좔
좡
좨
좼
죄
죈
죌
죔
죗
죠
죤
죵
주
죽
준
줄
줌
줍
줏
중
줖
줘
줠
줬
줴
쥐
쥑
쥔
쥘
쥠
쥣
쥬
쥰
쥴
즈
즉
즌
즐
즘
즙
즛
증
지
직
진
짇
질
짊
짐
집
짓
징
짖
짙
짚
짜
짝
짠
짢
짤
짦
짧
짬
짭
짯
짰
짱
째
짹
짼
쨈
쨉
쨋
쨌
쨍
쨔
쨩
쨰
쩌
쩍
쩐
쩔
쩜
쩝
쩡
쩨
쪄
쪘
쪼
쪽
쪾
쫀
쫄
쫌
쫑
쫒
쫓
쫘
쫙
쫴
쬐
쬔
쬘
쭈
쭉
쭌
쭐
쭘
쭙
쭝
쭤
쭸
쮸
쯔
쯤
쯧
쯩
찌
찍
찐
찔
찜
찝
찟
찡
찢
찧
차
착
찬
찮
찰
참
찹
찻
찼
창
찾
찿
챂
채
책
챈
챌
챔
챕
챗
챘
챙
챠
챤
챦
챨
챰
챵
처
척
천
철
첨
첩
첫
첬
청
체
첵
첸
첼
쳄
쳅
쳇
쳉
쳐
쳔
쳤
쳥
쳬
쳰
초
촉
촌
촐
촘
촙
촛
총
촤
촨
촬
촹
최
쵤
쵸
춈
추
축
춘
출
춤
춥
춧
충
춰
췄
췌
췐
취
췬
췰
췻
츄
츈
츌
츠
측
츤
츨
츰
층
치
칙
친
칠
칡
침
칩
칫
칭
카
칵
칸
칼
캄
캅
캇
캉
캐
캑
캔
캘
캠
캡
캣
캤
캥
캬
커
컥
컨
컫
컬
컴
컵
컷
컸
컹
케
켁
켄
켈
켐
켑
켓
켕
켜
켠
켤
켬
켭
켰
코
콕
콘
콜
콤
콥
콧
콩
콰
콱
콴
콸
쾀
쾃
쾅
쾌
쾡
쾨
쾰
쿄
쿠
쿡
쿤
쿨
쿰
쿱
쿳
쿵
쿼
쿽
퀀
퀄
퀑
퀘
퀜
퀭
퀴
퀵
퀸
퀼
큅
큇
큉
큐
큘
큠
크
큭
큰
클
큼
큽
킁
키
킥
킨
킬
킴
킵
킷
킹
타
탁
탄
탈
탉
탐
탑
탓
탔
탕
태
택
탠
탤
탬
탭
탯
탰
탱
탸
터
턱
턴
털
텀
텁
텃
텄
텅
테
텍
텐
텔
템
텝
텟
텡
텨
텬
텼
톄
톈
토
톡
톤
톨
톰
톱
톳
통
톺
퇀
퇘
퇴
툇
투
툭
툰
툴
툼
툽
툿
퉁
퉈
퉜
퉤
튀
튁
튄
튈
튐
튕
튜
튠
튤
튬
트
특
튼
튿
틀
틈
틉
틋
틍
틑
틔
틜
티
틱
틴
틸
팀
팁
팃
팅
파
팍
팎
판
팔
팜
팝
팟
팠
팡
팥
패
팩
팬
팰
팸
팹
팻
팼
팽
퍄
퍅
퍼
퍽
펀
펄
펌
펍
펏
펐
펑
페
펙
펜
펠
펨
펩
펫
펭
펴
편
펼
폄
폅
폈
평
폐
포
폭
폰
폴
폼
폽
폿
퐁
퐈
퐝
푀
푄
푈
표
푯
푸
푹
푼
풀
풂
품
풉
풋
풍
퓌
퓔
퓨
퓰
퓸
프
픈
플
픔
픕
피
픽
핀
필
핌
핍
핏
핑
하
학
한
할
핥
함
합
핫
항
해
핵
핸
핼
햄
햅
햇
했
행
햐
햔
향
헀
허
헉
헌
헐
험
헙
헛
헝
헤
헥
헨
헬
헴
헵
헷
헸
헹
혀
혁
현
혈
혐
협
혓
혔
형
혜
호
혹
혼
홀
홈
홉
홋
홍
홑
화
확
환
활
홧
황
홰
홱
횃
회
획
횐
횔
횟
횡
효
횰
후
훅
훈
훌
훑
훓
훔
훕
훗
훙
훠
훤
훨
훵
훼
훽
휀
휄
휑
휘
휙
휜
휠
휨
휩
휫
휭
휴
휸
휼
흄
흉
흐
흑
흔
흗
흘
흙
흠
흡
흣
흥
흩
희
흰
흴
히
힉
힌
힐
힘
힙
힛
힝
更
車
串
龜
金
奈
羅
螺
裸
樂
洛
烙
落
亂
卵
蘭
濫
藍
拉
朗
浪
郎
來
冷
勞
爐
盧
老
蘆
路
露
魯
綠
錄
鹿
論
弄
籠
聾
雷
樓
漏
累
凌
陵
樂
寧
怒
率
便
復
不
參
塞
省
辰
沈
若
略
兩
梁
良
量
呂
女
旅
驪
麗
黎
力
歷
年
戀
煉
聯
蓮
連
列
劣
烈
裂
說
廉
念
令
囹
寧
嶺
瑩
鈴
零
靈
領
例
禮
隸
惡
尿
料
樂
遼
龍
劉
柳
流
琉
留
類
六
陸
倫
輪
律
栗
率
隆
利
吏
履
易
李
梨
泥
理
裏
里
離
溺
燐
麟
林
臨
立
狀
炙
茶
切
宅
暴
降
！
＂
＃
＄
％
＆
＇
（
）
＊
＋
，
－
．
／
０
１
２
３
４
５
６
７
８
９
：
＜
＝
＞
？
＠
Ａ
Ｂ
Ｃ
Ｉ
Ｋ
Ｌ
Ｓ
Ｘ
［
］
＾
＿
ｇ
ｍ
ｔ
｜
～
｢
｣
･
￦
##수
##로
##나
##륜
##산
##에
##서
##주
##시
##켰
##을
##반
##당
##해
##다
##하
##면
##도
##는
##덕
##초
##등
##육
##키
##우
##려
##택
##6
##억
##2
##천
##여
##만
##원
##업
##비
##율
##0
##3
##대
##를
##별
##중
##지
##금
##리
##가
##앙
##됐
##데
##상
##화
##라
##든
##내
##각
##보
##기
##융
##위
##일
##소
##세
##임
##티
##험
##연
##구
##이
##형
##계
##준
##으
##쪼
##개
##측
##짓
##버
##스
##회
##사
##였
##9
##명
##절
##던
##푸
##레
##무
##집
##부
##눌
##졌
##고
##략
##마
##케
##팅
##실
##장
##신
##5
##탄
##제
##핑
##객
##게
##진
##문
##관
##광
##재
##단
##P
##뿐
##메
##군
##ㆍ
##넥
##타
##크
##8
##7
##4
##B
##프
##린
##브
##르
##궁
##환
##경
##생
##켜
##줄
##1
##㎡
##o
##m
##e
##p
##r
##권
##은
##져
##겠
##디
##자
##인
##전
##학
##빈
##석
##처
##럼
##추
##놀
##와
##태
##협
##조
##직
##법
##란
##교
##감
##담
##검
##평
##방
##피
##트
##발
##왔
##식
##더
##울
##국
##∼
##의
##패
##픽
##그
##룹
##모
##숙
##며
##예
##술
##축
##치
##합
##야
##한
##늘
##빵
##체
##노
##a
##y
##n
##열
##풍
##과
##공
##분
##된
##니
##까
##독
##들
##차
##필
##러
##아
##했
##포
##풀
##투
##파
##너
##말
##역
##작
##정
##건
##안
##행
##박
##람
##맥
##샷
##N
##색
##밍
##영
##어
##요
##동
##월
##랑
##쥬
##량
##용
##속
##잡
##강
##곡
##능
##흥
##렬
##챕
##터
##톤
##활
##품
##령
##애
##결
##되
##쳐
##증
##미
##채
##청
##센
##l
##k
##s
##샘
##송
##드
##출
##함
##선
##설
##콘
##테
##걀
##팩
##허
##팀
##날
##큼
##빛
##향
##벤
##복
##릴
##오
##북
##코
##슬
##림
##납
##킨
##료
##헌
##본
##목
##성
##찰
##없
##력
##윌
##슨
##곳
##표
##´
##었
##입
##족
##＝
##름
##올
##녁
##앞
##친
##탁
##책
##캔
##커
##난
##항
##뚜
##껑
##K
##렘
##G
##민
##현
##랩
##적
##S
##L
##I
##받
##닥
##뜨
##→
##써
##달
##션
##호
##텔
##암
##창
##간
##거
##래
##꺼
##웠
##변
##H
##T
##폐
##촌
##씨
##저
##펀
##약
##럴
##착
##글
##루
##컨
##바
##론
##물
##맹
##점
##망
##불
##맨
##춰
##Z
##앱
##외
##응
##므
##쯤
##손
##욕
##김
##유
##급
##C
##네
##웍
##백
##플
##즈
##칭
##죠
##황
##탈
##악
##b
##홀
##십
##농
##흑
##딱
##따
##통
##맸
##언
##힘
##링
##운
##립
##㎝
##곽
##펜
##질
##격
##습
##혼
##줘
##년
##덟
##템
##펑
##병
##류
##철
##최
##왕
##매
##널
##긴
##종
##냐
##길
##것
##돌
##걸
##퍼
##될
##취
##c
##i
##음
##돼
##있
##카
##페
##머
##승
##편
##배
##느
##럽
##뒤
##O
##멍
##같
##갈
##양
##²
##엔
##렉
##토
##엑
##벽
##획
##t
##심
##혔
##V
##빌
##충
##읍
##줬
##컷
##순
##W
##층
##맡
##범
##남
##클
##㎥
##홈
##런
##힐
##혈
##셀
##칵
##캠
##례
##촉
##온
##련
##얀
##캄
##윤
##록
##E
##랄
##쟁
##찌
##꾸
##D
##핵
##엇
##룩
##딕
##득
##닝
##폭
##총
##새
##봄
##판
##R
##섬
##뇌
##몰
##끗
##엄
##살
##견
##할
##찻
##밖
##u
##둥
##U
##섹
##탬
##염
##닉
##낸
##룡
##첨
##갑
##덱
##눔
##두
##콥
##잉
##탠
##┃
##규
##베
##d
##g
##옥
##짜
##씽
##Y
##∙
##싸
##움
##J
##넷
##블
##몬
##놓
##엠
##웃
##밸
##궐
##때
##봉
##쓰
##볼
##씩
##징
##닐
##녀
##률
##M
##딩
##둑
##뺌
##솔
##확
##늪
##특
##츠
##홍
##㎉
##쪽
##슈
##릉
##멜
##듀
##섯
##쌍
##알
##워
##f
##｜
##른
##켐
##텍
##옵
##x
##A
##죄
##럭
##척
##근
##믹
##퀄
##컴
##륙
##홉
##웰
##막
##숭
##졸
##×
##캡
##슐
##폰
##덴
##뱅
##킹
##젝
##쌓
##접
##닷
##렌
##켓
##렸
##번
##째
##톡
##훈
##뻘
##싱
##톱
##웨
##액
##댄
##빙
##턴
##균
##압
##괄
##랐
##팬
##답
##칙
##봇
##궤
##㈜
##후
##짱
##님
##먼
##혀
##효
##땀
##슘
##뢰
##침
##핍
##존
##㎏
##털
##챗
##죽
##F
##뷰
##랭
##혁
##엽
##녹
##쿠
##텐
##완
##튼
##춘
##짐
##콩
##캐
##귄
##샵
##＋
##앤
##잠
##셩
##누
##익
##셔
##넘
##첩
##롱
##께
##j
##h
##흐
##틱
##톨
##쎄
##＞
##셨
##켄
##훼
##겨
##▲
##좀
##끼
##섭
##듯
##찬
##w
##z
##밀
##횟
##히
##탕
##찢
##X
##쿵
##랫
##폼
##락
##램
##콜
##●
##둘
##쇼
##뉴
##녕
##밥
##삼
##골
##쿄
##참
##멸
##희
##킬
##샤
##퇴
##깔
##눈
##탑
##엘
##콤
##숟
##넬
##릭
##떡
##㎍
##뺑
##봤
##˝
##좌
##젯
##굴
##윗
##뇨
##뜰
##캣
##v
##컬
##삽
##찹
##렁
##뭇
##겐
##겸
##곰
##탐
##값
##델
##벨
##냥
##끈
##귤
##랠
##쿨
##웅
##롬
##욱
##뎠
##흔
##▷
##묵
##듭
##튜
##팽
##봐
##툼
##갤
##귀
##젤
##꼴
##맛
##▶
##쇄
##겹
##쥐
##왁
##옛
##랙
##셜
##셈
##젠
##틀
##숍
##윈
##칩
##얼
##쓸
##큐
##벡
##펌
##뀜
##쉐
##뮤
##㎿
##즘
##삐
##휴
##뼝
##떠
##않
##㎛
##논
##Ⅲ
##쭉
##극
##랜
##춤
##듈
##냈
##쳤
##뱉
##꿈
##붙
##툰
##ｍ
##빗
##냉
##맏
##Ｌ
##멕
##쾅
##뮬
##놨
##꼬
##펠
##켤
##Ⅰ
##첸
##늠
##깜
##픈
##돈
##쥔
##윙
##닭
##꾼
##깨
##★
##못
##젬
##곤
##덮
##맞
##셰
##틴
##텁
##칸
##♣
##컵
##붕
##괴
##렐
##q
##잔
##푼
##폴
##솜
##웁
##─
##┬
##┼
##┤
##멘
##딜
##엉
##킥
##③
##↑
##씻
##렛
##셉
##핀
##낙
##롤
##쉬
##잰
##㎰
##몽
##갱
##딴
##렴
##맙
##븐
##칠
##㏊
##줌
##았
##겁
##숴
##탓
##또
##팔
##먹
##숲
##헬
##℃
##짤
##묘
##끝
##쩍
##댐
##늬
##뤄
##릿
##굼
##굿
##잎
##벌
##뻤
##릇
##쿼
##줏
##춧
##팜
##묻
##혜
##칼
##념
##줍
##딸
##룸
##넴
##숑
##쩔
##ｔ
##㎢
##♡
##뵈
##틸
##펩
##벅
##쌀
##숫
##뙈
##㎾
##빨
##헤
##흠
##잣
##끔
##㎎
##킴
##낭
##픔
##♥
##첼
##젓
##밟
##웹
##밭
##덤
##킷
##맵
##끄
##렇
##뚝
##퓨
##뿌
##닙
##츄
##μ
##켈
##팰
##뇽
##갔
##챔
##롭
##싹
##빅
##롯
##㎜
##옹
##맘
##뽑
##혹
##댔
##딧
##눠
##흡
##띠
##곶
##빔
##밤
##뤼
##챙
##랴
##뽕
##탯
##즌
##뿔
##퀴
##룽
##흉
##쫓
##퀸
##됨
##퐁
##땐
##팍
##찮
##ℓ
##캇
##짝
##〓
##㎖
##잖
##휠
##낳
##좋
##혐
##엣
##ㅎ
##밋
##찜
##팟
##첵
##랍
##끌
##벙
##셋
##㎞
##듬
##○
##탱
##벳
##꽃
##떼
##벼
##멤
##닫
##쯔
##밑
##둬
##뭉
##휘
##깡
##빠
##뼛
##뜩
##덩
##ᅢ
##ᄒ
##ᅡ
##ᆫ
##흙
##뫼
##넌
##갯
##샌
##밴
##△
##첫
##틈
##돋
##イ
##タ
##볶
##걱
##앗
##촬
##엥
##툴
##폿
##핥
##갖
##핏
##젖
##は
##よ
##う
##곱
##뜸
##듐
##둔
##훌
##헨
##펄
##땅
##쉰
##꿀
##앳
##왓
##쿡
##횡
##댁
##Q
##텀
##펫
##랏
##핼
##앵
##▽
##푹
##탭
##섰
##찍
##풋
##큅
##뒀
##쏘
##옆
##놔
##룬
##ㅇ
##탤
##빼
##옷
##칫
##눅
##렀
##쌈
##즐
##쓴
##햇
##숨
##츰
##톰
##륵
##낼
##펙
##됩
##씀
##숯
##룰
##α
##ν
##ο
##㎟
##ᆞ
##굽
##쩌
##랬
##◇
##↓
##삭
##뱃
##즙
##뎌
##싯
##옴
##껄
##뜬
##둠
##짚
##촨
##っ
##け
##ら
##か
##ん
##팡
##챌
##Ⅱ
##멀
##뷔
##돔
##겔
##얍
##숩
##딘
##릎
##ｇ
##늑
##깃
##쑥
##닌
##낵
##컥
##ク
##キ
##쇠
##ㅣ
##읽
##왐
##딪
##힌
##렙
##얘
##깥
##옌
##넨
##뀐
##썸
##씹
##잇
##텝
##핌
##쁜
##괜
##텅
##낌
##잭
##뜻
##깬
##뚤
##댕
##훙
##콕
##씌
##뽀
##옅
##떨
##볕
##왜
##꿔
##넙
##붐
##렝
##슷
##잗
##솟
##툇
##뤘
##걷
##촛
##깅
##쁘
##났
##핸
##댓
##엌
##튀
##슛
##닛
##썰
##°
##몇
##뼈
##낚
##렵
##챠
##㏄
##뭄
##앓
##왼
##잼
##㎠
##늄
##뮴
##㎐
##쾌
##댜
##샹
##■
##찾
##㏈
##쉴
##퓰
##놈
##럿
##잘
##깐
##껏
##큰
##콰
##쉼
##쏠
##긋
##뜀
##깽
##얌
##쬐
##퉤
##꼽
##턱
##똥
##깎
##팹
##읜
##싶
##솥
##⅔
##꿍
##Ⓡ
##◆
##®
##슴
##릅
##텨
##얏
##뀌
##㎤
##쿤
##⋅
##쳇
##맺
##퀘
##겅
##뿍
##맴
##▼
##썽
##섕
##갚
##햄
##１
##é
##™
##궈
##왈
##굣
##팝
##셸
##캉
##왑
##꿰
##뚫
##㎓
##렜
##떻
##샐
##튄
##앉
##먀
##멋
##및
##뛰
##몹
##췄
##냇
##갓
##늉
##옙
##녠
##웬
##뭐
##톈
##많
##뻐
##덜
##쉽
##₂
##펭
##흘
##쩡
##겟
##쿱
##겼
##팸
##㎽
##냄
##넵
##쇳
##넉
##뮨
##①
##앨
##헛
##쫄
##숏
##괘
##떳
##얹
##썩
##쟈
##롄
##탔
##붉
##쌉
##뱀
##듣
##펴
##넛
##윅
##깁
##꿉
##깼
##핫
##높
##륨
##륭
##맷
##엎
##넣
##굳
##몸
##꺠
##텃
##썬
##〮
##돕
##덥
##팎
##밝
##햐
##ä
##の
##た
##に
##닿
##옇
##쭙
##깊
##슥
##랗
##팁
##빡
##쏟
##ı
##녈
##딤
##냅
##㏐
##떤
##멈
##옻
##꿨
##멩
##쉭
##껌
##벚
##쾀
##큘
##낀
##덧
##텡
##찡
##폈
##눕
##끊
##껴
##꺽
##믐
##쏭
##엿
##꼭
##꽁
##맑
##벗
##녘
##₃
##쳰
##훗
##튬
##짬
##헝
##귈
##⑤
##둡
##빚
##뻣
##퉁
##찔
##㎒
##윕
##₁
##껍
##삯
##뻑
##씬
##컹
##듸
##썼
##팥
##퀼
##꼐
##뾰
##궜
##썹
##갰
##쌤
##뉘
##넓
##뿡
##옮
##≫
##π
##츨
##멧
##÷
##봅
##뚱
##묶
##똑
##믿
##퍽
##±
##Е
##Т
##얄
##쩨
##쟝
##쑤
##햅
##㎘
##믄
##퉜
##꺾
##힛
##ㄴ
##믈
##쁨
##젊
##⅓
##괭
##좡
##콧
##て
##も
##헉
##㏃
##퀵
##잊
##끽
##짖
##뎬
##잃
##똘
##랸
##낮
##쵸
##탸
##됭
##찼
##칡
##눹
##▮
##삶
##긍
##ご
##り
##괌
##☆
##뱡
##샛
##³
##볍
##쉘
##팻
##셴
##캅
##듄
##ㄷ
##ㄹ
##딥
##샨
##욘
##쑹
##밌
##뼘
##즉
##쭘
##ㅡ
##②
##죤
##땡
##닺
##낍
##삿
##솝
##쥘
##욜
##힝
##췌
##뎐
##レ
##ー
##ル
##렷
##묄
##띤
##셌
##㎦
##ⓡ
##↔
##묾
##낫
##뽈
##□
##곁
##앰
##믜
##깰
##쑈
##뎅
##캘
##헀
##젼
##꼈
##㎩
##붓
##헴
##깝
##밉
##킵
##れ
##る
##こ
##と
##が
##で
##き
##な
##い
##낄
##㎼
##뎃
##녔
##껀
##쓱
##ト
##シ
##ッ
##～
##샬
##몄
##뮌
##슭
##챵
##냠
##깍
##え
##じ
##せ
##싣
##씰
##훠
##눗
##è
##띈
##웡
##튠
##쉑
##샴
##め
##벵
##뢴
##꼼
##넝
##꽂
##뺏
##몫
##☎
##엡
##갛
##읏
##싼
##뻬
##돐
##셍
##굉
##퀀
##ㄱ
##궂
##밧
##ㅠ
##윳
##쭈
##짠
##쿰
##샀
##ラ
##ン
##갭
##뽁
##낯
##뵙
##윷
##뜯
##♭
##잴
##짙
##욤
##뮐
##삘
##홰
##닮
##듦
##뉜
##텟
##젭
##섶
##쏨
##뺀
##뻗
##◈
##콸
##ㅐ
##얗
##２
##훔
##놋
##㎧
##탉
##댈
##슁
##딛
##늙
##붇
##ロ
##볜
##몐
##す
##갠
##쁩
##맬
##앎
##쏙
##셕
##굵
##㎚
##슌
##퉈
##맣
##㎈
##◎
##힙
##쌌
##꼿
##뻔
##쉥
##쨉
##풉
##챈
##뤽
##잽
##촐
##│
##떴
##헥
##믓
##휼
##챘
##닦
##숀
##숄
##돗
##ず
##ま
##긔
##멎
##슝
##띡
##ö
##얻
##ㅅ
##ㅈ
##빕
##ㅌ
##ジ
##톳
##닢
##뽄
##♬
##쑨
##뗄
##웝
##롸
##짯
##퍄
##뇰
##뒷
##⦁
##헐
##쭌
##틋
##샾
##á
##캥
##늦
##˚
##눴
##븀
##쟎
##횃
##㎣
##뗐
##Ⅳ
##킁
##µ
##쳄
##オ
##띄
##ㅍ
##χ
##≤
##밈
##겜
##쳬
##О
##Н
##＜
##꽉
##㏏
##빽
##ㅋ
##댑
##힉
##쫀
##Ｓ
##깻
##됏
##♪
##솽
##뺐
##㈔
##춥
##갸
##윽
##ゃ
##뷜
##짼
##췰
##⑴
##펍
##８
##꽈
##쐬
##짇
##놉
##곧
##끎
##≥
##훤
##죵
##콴
##κ
##꼰
##㎳
##쌩
##쫒
##룻
##ᅳ
##ᄀ
##ᅩ
##펨
##쳔
##헙
##촘
##㎲
##㏅
##뭍
##섞
##㎃
##к
##р
##а
##и
##н
##흰
##뿜
##섀
##컫
##챤
##돠
##촹
##쾨
##겉
##볐
##됫
##빤
##Å
##괸
##좁
##ㅂ
##し
##④
##뷴
##툭
##냔
##㉯
##랲
##㏜
##쭐
##㏙
##옭
##쭝
##뷸
##돛
##à
##읗
##곪
##꾹
##휸
##삔
##ㅜ
##쒔
##퓸
##쟉
##돤
##퍅
##띔
##뵐
##ア
##チ
##を
##륀
##쫑
##뎀
##팃
##뚬
##벰
##뻥
##웻
##퓔
##팠
##뎁
##켑
##わ
##び
##둣
##쁠
##쭤
##픕
##➢
##죔
##◀
##곬
##ㅁ
##ㅊ
##똠
##읠
##⇒
##잿
##셧
##섣
##ü
##짧
##や
##ㅆ
##쨍
##췐
##ь
##о
##в
##쉔
##푀
##マ
##ダ
##ニ
##ウ
##찟
##멓
##∨
##폄
##뭅
##튿
##큠
##릍
##빱
##¨
##젱
##켠
##⑨
##읖
##땜
##㎕
##윔
##끓
##잦
##췬
##ⅹ
##녜
##꽝
##㎸
##푯
##캬
##윰
##웩
##앴
##쪄
##β
##⑩
##흄
##í
##욧
##얕
##벧
##ᄅ
##ᄋ
##ᆯ
##쒀
##Ⅴ
##⁺
##츈
##짢
##튕
##섐
##⇨
##떽
##←
##멱
##덫
##쥴
##ñ
##ド
##걍
##굶
##Ⅷ
##찐
##캑
##►
##읕
##㏖
##펼
##켕
##릳
##ば
##つ
##あ
##♩
##쌕
##⑥
##뽐
##쩐
##웜
##튤
##멥
##꽹
##갗
##옐
##샥
##쎌
##쳉
##찝
##홧
##㎑
##씸
##㎫
##껫
##닯
##み
##냑
##곗
##ô
##줖
##띨
##궉
##룔
##ú
##욋
##쪘
##귿
##쟌
##¤
##ž
##얽
##짹
##ㄲ
##そ
##뱌
##ョ
##т
##짊
##땠
##Ｋ
##４
##０
##５
##쨈
##눙
##＾
##돝
##Ι
##촙
##쏜
##⑮
##텄
##옳
##쉈
##В
##띵
##잌
##꽌
##뒹
##쇨
##쏴
##됬
##Φ
##쩜
##빴
##뢸
##퓌
##だ
##횔
##뀔
##◯
##≒
##겄
##꽥
##Ⅹ
##쩝
##６
##릮
##뎡
##さ
##좇
##γ
##겆
##ⓔ
##얇
##넹
##츌
##∥
##삥
##뼉
##뉼
##⑧
##〇
##х
##м
##л
##у
##긁
##ㅿ
##ス
##갼
##땃
##솀
##겪
##ㅤ
##넒
##텼
##깟
##샅
##▴
##д
##귓
##넸
##∽
##쾰
##빳
##É
##볏
##カ
##솎
##쎈
##룀
##뮈
##퇀
##퀜
##컸
##봬
##쨔
##븡
##넜
##챦
##뀨
##휀
##ㅗ
##싫
##꿋
##짭
##줴
##졍
##쳅
##Ü
##좔
##훅
##롼
##횐
##ó
##쫌
##낟
##☞
##А
##К
##И
##땄
##휨
##☏
##뎨
##귐
##덞
##３
##쥣
##숱
##삑
##뭘
##≠
##쐐
##튁
##앝
##헹
##펐
##쒸
##Л
##⑦
##깵
##ᅥ
##ᆼ
##ᄆ
##쪾
##뛴
##뭔
##홋
##혓
##셤
##▪
##쨌
##쬔
##Ｃ
##끕
##짦
##떮
##⓵
##긷
##ハ
##バ
##껜
##럇
##똔
##륄
##뚠
##ㅔ
##뗌
##틔
##Ｉ
##꿎
##붑
##쨋
##ᅵ
##ᄃ
##く
##꾀
##낡
##㎹
##겋
##쾡
##랖
##ß
##쌔
##ケ
##샜
##엾
##㎷
##ê
##큇
##æ
##М
##죈
##㉮
##뵨
##솨
##サ
##끙
##뉠
##흗
##헷
##낱
##잤
##ど
##냘
##묏
##씁
##훕
##긱
##훨
##츤
##뇐
##⑫
##꿇
##튈
##댱
##뱐
##➀
##Р
##С
##풂
##캤
##ㅓ
##흩
##휙
##Ⅵ
##꿩
##⑬
##톄
##â
##셥
##껸
##ミ
##쟤
##뵌
##좆
##팼
##훑
##됴
##쌘
##겯
##½
##겡
##뱁
##헸
##괵
##с
##꺄
##ø
##웽
##쥠
##㉣
##뗏
##º
##땔
##튐
##⇔
##욥
##쐈
##큭
##콱
##ⓒ
##묫
##탰
##쨰
##떫
##툽
##쾃
##졔
##♠
##ㅏ
##쇤
##뿅
##샙
##뵀
##솅
##뛸
##е
##г
##슉
##メ
##홑
##Ⅶ
##닳
##왠
##ム
##퇘
##휩
##⑭
##ᄌ
##˙
##떱
##뭡
##헵
##낑
##휜
##갇
##뤠
##홱
##ゆ
##쿳
##꿸
##삵
##갬
##ç
##я
##コ
##뺨
##궃
##ひ
##틉
##꼍
##걔
##⟶
##곯
##퐝
##펏
##섁
##엮
##죌
##닻
##숌
##げ
##넋
##찧
##ち
##リ
##∆
##꽤
##뙤
##낏
##뗀
##＄
##췻
##ㄸ
##얜
##쉿
##퐈
##㏓
##뗑
##톺
##ᄂ
##쇽
##뭣
##ㅕ
##ⓝ
##옘
##흣
##쮸
##떵
##켁
##ㅖ
##뜹
##й
##삠
##ᅦ
##ノ
##Ｂ
##찿
##껐
##왬
##졘
##첬
##◉
##ᄉ
##п
##▣
##¹
##φ
##쯧
##휭
##룅
##딨
##ろ
##ふ
##폽
##δ
##끅
##륏
##겊
##ч
##앟
##먕
##짰
##엷
##챨
##밞
##쏩
##ㅉ
##빰
##즛
##ë
##ㅛ
##썅
##붸
##€
##섦
##㉤
##땁
##쳥
##똬
##⑪
##돎
##☜
##テ
##삣
##뵤
##켭
##씐
##쟀
##㎗
##┴
##ː
##꺅
##쭸
##뷘
##ㅱ
##땋
##쀼
##￦
##좨
##뉨
##Ω
##з
##휑
##ⓐ
##틑
##왱
##９
##갹
##쌰
##ね
##ㅑ
##Ø
##∞
##덖
##쫙
##륌
##Ａ
##휄
##쑬
##띰
##㉠
##◦
##퀑
##멨
##빻
##꽐
##떄
##땟
##뀝
##벋
##쿽
##쨩
##묽
##쏸
##７
##お
##겻
##룟
##Д
##쑴
##⊙
##ㅃ
##ⓑ
##뺄
##▸
##촤
##フ
##엊
##녑
##Ｘ
##윱
##ャ
##㉡
##쥰
##틍
##쯩
##툿
##Ω
##깸
##∧
##ビ
##♧
##폅
##괏
##Ö
##욀
##햔
##¼
##뒈
##뀄
##뜁
##む
##쫴
##갉
##₄
##뜷
##춈
##맟
##몃
##Π
##Δ
##푈
##떰
##읊
##챂
##큽
##귑
##♦
##☐
##웸
##텬
##▒
##띱
##━
##뇔
##➊
##젋
##벱
##늴
##⑶
##휫
##럅
##멉
##쐰
##옜
##섈
##흴
##▨
##겝
##⑵
##쟨
##©
##낢
##큉
##ⓓ
##♂
##♀
##좼
##㉰
##θ
##왝
##깠
##Λ
##뱄
##쵤
##썪
##묜
##꿴
##Ⅸ
##훵
##읶
##똣
##⑷
##섧
##쬘
##엶
##뵘
##뗍
##섄
##깹
##윾
##횰
##띌
##쥑
##뺍
##좍
##⓶
##쫘
##괼
##꾄
##㉢
##훓
##✔
##푄
##쌨
##⑸
##묀
##훽
##읎
##쐴
##굄
##∇
##뉩
##챰
##√
##죗
##틜
##❍
##꾐
##으로
##에서
##했다
있다
##이다
##하는
##하고
##00
지난
20
있는
##한다
##지만
##까지
##었다
##들이
##부터
##면서
이라
대한
##다는
위해
것으로
##에게
한국
##적인
말했다
##적으로
##에는
10
201
통해
##하기
지역
##들의
##장은
했다
##하게
##혔다
밝혔다
사업
한다
##들은
##됐다
##았다
##자는
##하다
##된다
서울
이번
정부
지원
대해
대표
이어
##이라
이라고
함께
때문
##억원
위한
경기
19
##000
##도록
지난해
아니
미국
##에도
관계
관련
이상
##위원
우리
기업
##겠다
##사를
등을
##장을
가능
올해
##통령
경우
진행
대통령
문제
##에서는
##하지
##기를
12
##졌다
의원
국내
이날
11
중국
사람
##였다
200
##보다
하는
따라
이후
것이
##되는
##하며
##만원
최근
계획
##로나
##사업
세계
것이다
##으며
##리는
교육
코로나
운영
예정
국민
##기업
같은
##해야
##대로
필요
시작
후보
프로
추진
현재
##비스
##리를
30
가장
##들을
상황
##니다
특히
##장이
경제
##성을
##력을
것은
들어
15
사회
##지는
다양
##하면
대상
투자
##지를
없다
아이
##르면
하지만
##이나
만들
그는
##19
##자가
모두
개발
일본
사용
결과
시장
관계자는
##회의
##서는
이용
그러
전문
##하면서
##사는
따르면
생각
##정을
부산
다양한
참여
##성이
설명
##센터
국가
##화를
##기에
있어
삼성
다른
연구
코로나19
자신
##들에게
##되고
기록
때문에
대구
금융
##스트
##시간
학생
##사가
기술
##리고
많은
##이고
전국
18
##는데
발생
제공
된다
사실
##는다
##지고
증가
##시장
확대
최고
##지역
13
기대
평가
마련
##운데
민주
있도록
기준
##교육
##위원회
이에
서비스
시민
발표
아니라
정도
최대
가운데
판매
##상을
문화
라고
##로운
시간
16
하고
25
없는
14
현대
##명이
주민
##학교
100
제품
것을
이라며
##에서도
##0년
정책
##처럼
전망
##시아
##랜드
정치
규모
안전
##산업
예정이다
##마트
등의
##거나
##그램
산업
##기가
##자의
##레이
선수
##은행
확인
경찰
피해
이를
나타
하나
##인다
등이
인천
##회를
광주
활용
한편
##가는
지적
강조
17
어려
##렸다
##시설
조사
활동
당시
오는
환경
대학
##이라는
북한
강화
##원은
##부는
추가
있다는
포함
##기관
다시
내용
보고
고객
##났다
경쟁
##리가
교수
50
학교
생산
분석
지금
##하겠다
##라는
##기도
국제
감독
##라인
이유
##들과
에서
##왔다
결정
수준
##자를
그러나
됐다
알려
##이는
오후
대비
##안을
직접
##지원
##이었다
공개
202
지속
가격
계획이다
공동
검찰
해외
전체
##명을
##치를
선정
기존
관심
##의를
중심
소비
##했던
처음
내년
24
모든
모습
##도를
일부
때문이다
##원이
예상
또한
이런
새로운
사이
지방
##사의
수도
##연구
개선
##기로
있을
도시
구성
##문화
요구
##원을
적극
이미
준비
성장
중요
21
프로그램
주장
##식을
상승
##으면
분야
설명했다
않고
동안
##로벌
##기는
열린
여성
##개월
##했고
방송
조성
##위를
정보
주요
##스템
22
높은
앞으로
##점을
미래
##일부터
방문
##도시
##금을
있었다
면서
##이라고
만큼
확보
적용
선거
글로벌
##일까지
23
사건
##제로
많이
국회
##했다고
않은
##8년
지난달
비롯
##파트
##씨는
##개발
관리
##업체
개인
##환경
해당
##관리
##전을
생활
##동차
40
과정
##제를
기간
예산
##장의
##습니다
다음
영화
매출
특별
으로
관광
##력이
등에
성공
개최
##명의
##기술
##단체
효과
##다고
행정
이뤄
우려
실시
##자인
물론
##이스
보인다
상품
설치
대상으로
받아
스마트
더욱
일반
인터
##주는
##도가
공급
##시는
늘어
27
찾아
##도로
26
##원의
##라고
##대를
##9년
시행
장관
영향
##으나
마음
앞서
좋은
가족
확진
##겠다는
역시
LG
##경제
민주당
만들어
##선을
수출
않았다
강조했다
28
없이
##7년
건강
##러스
상태
건설
업무
외국
경영
##주의
##인이
##그룹
##5년
집중
중소
신청
현장
##동안
업체
역할
공공
스타
##이트
SK
구축
##대표
##시에
##리아
의원은
##나라
각각
위원
##이지
##너지
##진다
##의회
의견
보여
계속
오전
##료를
평균
대응
##세를
책임
##사회
유지
##사에
떨어
도입
아파트
##2년
##었던
따른
등으로
목표
##수를
##달러
##자로
##부가
##감을
전했다
나온
참석
29
여러
그런
##부를
브랜드
##년간
##이터
부담
##동을
의미
##라도
라는
선보
##움을
않는
크게
##1년
정상
##시키
자리
발전
3월
롯데
온라인
바이
고려
6월
영업
나오
만에
##사와
##지가
경기도
감소
전문가
##드는
이는
##하기로
이야
출시
해결
##6년
##하여
작품
사랑
노력
##치는
아닌
4월
돌아
시즌
전략
노동
판단
라며
##권을
주택
거래
받고
##동산
##계를
##이며
자신의
감염
어린
공연
##약을
제작
경남
대표는
##한다는
5월
##자리
통합
확산
##인을
##인은
##4년
있다고
받은
##인의
중앙
있고
##했지만
협력
사고
기자
의료
##부분
##주택
##인트
##되지
##르는
자유
차지
아직
##원에
7월
방식
##냈다
선택
9월
대전
##3년
핵심
정부가
현지
##수는
##장과
##수가
받았다
있지만
자체
청년
하루
지급
제주
드러
##전자
비판
직원
##정보
청와
울산
##업을
활성
##가지
최초
수요
이전
논란
##에선
60
1만
##들도
방침
##분기
##스를
부분
인사
##소년
##조사
혁신
##서를
##물을
##반기
제기
이하
어떤
검토
혐의
시스템
기능
인정
시설
본격
자동차
수사
##스크
신규
차량
보다
청와대
자연
반영
##과의
##하려
10월
대형
##계획
것도
수익
전남
부동산
##상이
대부분
논의
넘어
##해서
8월
우선
경북
##장에서
행사
우수
있으며
유럽
12월
##자들이
배우
대회
반면
1년
##정책
구조
그동안
##스는
##마다
나타났다
##대회
언론
바로
##투자
가능성이
기반
##렇게
31
##금융
##이어
참가
1월
만나
최종
##대에
이름
아니다
199
국민의
##스타
##원에서
경험
각종
기본
##민주
성과
사진
##한다고
분양
교통
공간
필요한
고용
전시
중인
##BS
##지에
안정
##장에
기관
보면
변화
제시
방법
의혹
장기
대책
개정
이동
출신
주변
##정부
##밖에
정부는
##문을
부족
사례
##리그
대통령은
종합
되는
##공사
은행
##어나
전기
한다는
보도
##복지
조직
사회적
그리고
민간
향후
##림픽
알려졌다
중소기업
주목
우승
##별로
지지
11월
##섰다
##소를
대선
2월
##스로
##가구
##자들의
덧붙
하락
지정
나서
결국
##두고
상당
##쳤다
전환
##가를
조선
##트를
##비를
기획
##도는
##라이
##규모
어떻
진출
대출
##없이
##불어
먼저
모델
이제
높아
##포츠
##전히
어렵
더불어
이해
중심으로
##본부
##원으로
##디어
##세대
공식
##성과
역할을
##발전
이와
전달
##량을
치료
가입
##랐다
공정
분위
70
설립
희망
체험
##시가
않을
어떻게
정부의
홍보
##거리
구매
##위에
회사
사업을
상대
않는다
##지로
어린이
##린다
##명으로
또는
통한
##건설
중이다
##텐츠
게임
덧붙였다
올라
백신
다만
재판
갖고
소속
##되면서
유치
불법
##생활
업계
아시아
보호
않았
요청
반대
두고
##거래
비해
위험
##증권
##가가
##로부터
##바이
예방
현실
음악
과정에서
선발
##되면
여행
실제
이라는
##했다는
##보험
같다
관련해
##위는
보유
전년
##차를
마지
##학생
##안전
##움이
##협회
사무
##하도록
##리스
하지
##억원을
보험
##20
제외
있게
##경기
방역
문제가
##정이
과거
##하다는
##머니
##자와
##리에
##라마
않아
##00만
않다
##서비스
마지막
##이익
비롯해
소재
2차
실적
##운동
출연
국정
사전
##지도
너무
##드를
신고
수상
전통
장애
제출
회복
필요하다
사태
공무
계약
지적했다
##업계
무엇
목소
인해
##장으로
감사
교수는
제대로
공격
강원
디자인
활성화
합의
거쳐
수도권
연속
대신
2년
##스코
이달
##50
##민국
제한
##구를
최소
씨는
##선거
인근
비용
비교
있었
단체
##도의
영국
인터넷
입장
없어
어느
##통신
##누리
받을
나온다
만든
대통령이
##느냐
대한민국
##대가
##했으며
확정
##무리
소개
제조
##00만원
사망
중단
##나는
역사
##이가
어려운
포인트
가까
방안
##부에
##하거나
##이자
규제
##음을
##30
마을
위치
처리
수입
##부의
행복
##er
앞두고
모습을
주장했다
##율이
그래
##대학
투입
##사로
##보고
작년
##소득
지도
외국인
에너지
일자리
청소년
##자체
해야
시청
##치고
전망이다
유통
표현
##BC
##와의
##대책
TV
재정
##재인
국토
취업
이들
기록했다
그의
3일
##이션
##활동
##학과
불가
##기간
##대의
창업
등록
KT
내놓
연결
서비스를
##지털
##량이
##등학교
문제를
번째
##병원
##연합
##이기
1일
80
##르게
##롭게
누구
달리
측은
3년
영향을
##공항
공모
없었다
##단지
##품을
##관광
이들은
##하던
##리지
부문
우리나라
고민
##갔다
##당은
나선
이끌
못한
콘텐츠
##세가
달러
내려
##서도
서울시
기념
##지구
##자들은
##관은
##운드
인상
위반
정도로
살아
수원
##하기도
오늘
##럼프
복지
매우
많다
35
##회가
이사
지나
국회의
지하
회장
소통
새누리
##보는
##정은
가능하다
불과
##하자
##마을
##교통
##체육
통과
##과학
파악
비중
##00여
동시에
달라
체결
과학
근로
바람
##스터
##바일
지자체
발견
##르고
줄어
제안
프리
##대는
있기
구체
스마트폰
회의
담당
##이지만
문재인
방향
##씨가
##주시
방침이다
##랫폼
중요한
뛰어
할인
##평가
오른
##관계
5일
##더라도
독일
##성에
충분
트럼프
혜택
##인데
1000
가능한
도로
예술
##단을
사람이
대해서는
나라
디지털
##학년
##단은
충남
단계
전자
코스
##다가
##경찰
##프로
세종
##근혜
조치
##점이
##지지
점을
10일
나왔다
주식
##이를
##제가
##임을
대통령의
2000
##사고
내부
그룹
관심을
못했다
##단계
남북
근무
##지면서
##겼다
친환경
얼마
상황에서
전용
방안을
채용
##당이
보였다
##개의
발언
변호
프로젝
15일
기초
홈페
##인지
연계
입주
소득
매년
관한
거리
인한
제2
이벤
##내는
##회사
##청은
인구
2015년
##건을
모바일
시는
##되어
20일
원내
검사
바탕
박근혜
공유
인수
##자에게
##실을
운동
나가
7일
회장은
여론
움직
##스럽
##스가
보건
##명은
조정
드라마
##행을
1차
외교
연기
36
전해
##카드
##스러
##입니다
인도
수밖에
영상
8일
##on
##케팅
##위가
스포츠
차례
반응
4일
2일
2012년
전날
2018년
##in
14일
##있는
항공
의견을
9일
작업
임대
유명
전북
스스로
이렇게
음식
제1
##원과
마무리
지켜
하면
도전
##항공
##하지만
창출
점검
1위
##만큼
노조
제도
2010년
프랑
좋아
강남
##관을
일정
것이라는
가지
이상의
성적
받는
##수의
서로
규모의
여전히
1천
사실상
##프라
예비
강력
갈등
플랫폼
##시스템
자산
접종
데이터
##하겠다는
정신
198
가진
2014년
투표
##개를
16일
6일
##란다
32
##세계
##율을
23일
##들에
12일
##율은
22일
##증을
25일
입장을
##화된
##화가
##심을
##스의
11일
2017년
활동을
러시아
##어요
##성은
젊은
##웠다
내용을
자금
17일
당선
여름
건축
##분을
친구
##디오
##자치
##예술
촬영
되고
지원을
언급
광고
18일
자기
토론
##이크
가정
나섰다
26일
24일
발굴
##시켜
33
##회는
21일
13일
바탕으로
이른
##감이
##상의
2008년
등은
감독은
이같
27일
19일
시험
전반
혐의로
일이
부모
부정
##리기
못하고
형태
신용
##률이
AI
2016년
1조
건물
##로는
기여
이러
2011년
##었고
모집
작은
구속
꾸준
가치
협의
##상공
##구역
힘을
훈련
##단이
##격을
달성
대기업
이재
##히려
2019년
##도체
28일
2013년
##으로는
있는데
##상에
놓고
가구
맞아
관심이
그렇
라이
34
##기의
신뢰
##관이
##경영
대중
최초로
주도
조합
힘들
국방
국립
벌어
골프
##프트
##진을
비롯한
##만의
변경
소비자
2009년
##보다는
##부와
약속
오히려
창원
내가
도움이
조금
2만
회원
아동
##수록
그대로
주는
##되며
통신
쉽게
연간
결혼
##화점
##성장
등장
##노동
정확
후보는
수행
인식
이유로
해도
이루
열고
무료
주거
처음으로
왔다
촉구
45
여자
대규모
결과를
##10
##TV
이곳
##회에서
예상된다
10년
시절
##제품
##인으로
같이
작가
펼쳐
불안
##자에
##대한
심각
##으로써
##산물
##이드
바란다
##준다
##위로
새누리당
이야기
##국의
##니스
알고
##부모
추천
차별
인터뷰
맞춰
##전문
프로젝트
##점으로
##워크
평화
현대차
##주고
지속적으로
의무
##명에
해양
##했을
##일을
1인
더불어민주
비슷
범죄
##리의
##플레이
설계
노래
마케팅
사실을
##지의
홈페이지
상담
출마
최저
공무원
긴급
한다고
##중앙
인간
국무
질문
위해서는
##화에
3개
이란
5년
##액은
보내
보수
대변
육성
선언
정권
규정
##an
수술
##공원
##률을
##식품
##방송
KB
겨울
특정
##시민
얼굴
열리는
38
##단의
IT
시장은
자녀
반발
있던
2020년
호텔
##재를
29일
##우는
불구
##길을
이러한
졸업
그러면서
영어
시작했다
나는
삼성전자
##드시
완료
90
아울
선물
##법을
##기와
30일
##자산
싶다
해소
올랐다
충북
그린
##인과
생태
##협력
지금까지
농업
시간을
수는
연장
편의
##고를
것이라고
카드
미국의
##회견
원내대표
##가고
##으면서
##어야
집행
##오는
단순
시간이
불편
##하는데
지역의
아름
원을
법무
##수로
##주년
##상품
실제로
##리즈
한화
이다
맞춤
셈이다
37
출범
상반기
아무
출전
반도체
말을
신설
##함을
##씨의
발표했다
절반
##구조
최고의
여기에
##상은
##NS
##하우
##였던
대체
없다는
공사
정보를
비상
한국의
잘못
금지
거의
자료
##도에
총선
##었지만
##받은
완성
정당
철저
까지
##금이
##국제
대법
학습
##조합
좋다
기자회견
건립
극복
축구
##역을
스트
독립
그런데
많아
##차례
##사에서
##000만원
사과
##보호
아버
높다
인기
신종
연출
유일
##리로
남자
늘었다
의원이
여야
올림픽
남성
##연구소
##과정
만드는
##서관
상대로
프랑스
사람들이
한나라
아울러
하이
관광객
자율
진단
지키
월드
포항
배출
##안이
##파크
기억
##물이
상황을
존재
##지와
접근
##번째
반드시
##진흥
기회를
##000억원
##or
끌어
둘러
앞으로도
보는
넘는
제품을
최선을
역대
휴대
소송
보니
보장
시도
##의원
남아
하반기
##대학교
##회담
이벤트
외부
맞는
화장
프리미
전면
##전에
펀드
##군은
애플
##기준
집단
2007년
5개
낮은
##금은
만족
##제는
삼성전
열어
##자원
##조정
위기
##률은
수립
사상
##회에
1억
프로그램을
##가격
인공
##지방
##켰다
정규
기술을
기부
##았던
##공간
판결
##리한
허용
기준으로
발표한
더불어민주당
39
때는
증권
밝혀
일을
방식으로
##받고
이번에
4개
것에
전혀
출발
가져
##자동차
##대출
거주
집계
##으니
비대
적극적으로
기업의
부회
어디
##al
경찰은
##버스
##국은
##항을
특징
발생한
매일
실패
##이너
필요가
시각
문제는
생각한다
주문
응답
도내
KBS
등에서
매각
주인
패션
##ar
효율
계열
영업이익
추정
배치
##등급
선고
완화
##선수
효과를
인권
세월
정기
##카오
쏟아
노인
##에만
인력
교체
##적이다
신속
##트워크
##상으로
##전에서
그림
##시키는
##재단
##다운
##페인
##식이
SNS
임시
원칙
##려는
올해는
기소
구입
가지고
언제
##안에
##과는
우리가
장애인
신한
사장
포함한
사라
실천
관객
얘기
##진은
보이고
감안
마스크
근거
특수
##올림픽
관람
상황이
크다
돈을
전력
당부
안에
##겠다고
긍정
종목
접수
포스코
##나무
55
학부모
##다면
48
##사업을
##리카
##국이
##로서
하다
법률
##로를
명의
대화
걸쳐
장관은
중요하다
나머
##en
##요일
성과를
시작으로
##리와
되면
##만을
42
개혁
##면을
주말
꾸준히
##비가
##스러운
65
주로
우리는
##구는
##레스
베트
고위
##정한
##당의
취임
기다
##이면
환자
##구가
그것
거부
##는지
##경을
논란이
뉴욕
강한
##후보
##00억원
돌파
품질
식품
당초
##아야
주차
마음을
이명
전쟁
이익
오픈
##소가
##나고
4년
##진이
##연구원
어려움을
##시를
##테크
##교육청
##at
전에
자리를
##실에서
아래
순간
MBC
주제로
평소
##했으나
그가
페이스
상장
나갈
피부
자세
##시킨
##공업
안내
의사
##인가
직장
병원
개막
점에서
성남
##하라
재산
소방
##적이고
연말
##시의
##성도
이용해
##위원장
##통합
##뿐만
##대상
이내
베트남
활용해
실현
##펀드
인프라
느낌
전화
상황이다
자동
##어를
정의
##했는데
##에너지
두산
밝힌
##시티
인증
자신이
거듭
정말
한반
##계가
##시즌
이야기를
소상공
담은
그래서
##기고
절차
CE
센터
44
통일
정비
쇼핑
##적이
##자금
증가했다
수석
경우가
##하겠다고
##주를
##시험
단지
잇따
복합
사람은
##해도
##수도
확진자
##명과
김영
해석
43
시대
##직원
아프
주고
##량은
스타일
재난
한번
##받는
들여
##력과
네이
##생을
공천
메시
동아
##만에
목표로
##리며
취소
바이오
평가를
4대
피해를
재미
미술
아니냐
살펴
작성
포함해
심사
##건축
조기
카카오
3만
취약
요즘
광역
##기구
##아가
##으로부터
사는
52
41
찾는
46
##주가
##점에서
##공단
공직
접촉
속에서
##하려는
##분이
##000만
늘어난
자원
##분에
시작한
수용
봉사
못하는
고양
하며
진입
분명
##선이
수가
##도와
느끼
##대에서
##위의
밝히
##조원
제공한다
공약
##분의
##봤다
통화
즐길
49
##내고
원하는
일으
미세
##치가
##협의회
이탈
나와
등도
##없는
갖춘
추가로
검찰은
급증
맞춤형
조건
태양
다르
처벌
천안
##려고
##전략
채권
##체를
47
##활동을
##티브
중국의
197
엄마
오래
500
가는
구간
인물
형성
##지사
것과
##0년대
새로
자랑
##장애
소유
수업
실질
##거운
##하이
사장은
공공기관
주력
하기
##000원
##메달
6개월
얼마나
체계
명예
없을
##혁신
효과가
##전이
##피언
공감
이름을
##가의
##영화
혜택을
부여
상태다
선진
##일보
##감독
멤버
여기
개편
지상
운영하는
##형을
타이
##가족
무역
조례
북한의
불러
##비용
자본
제공하는
##플러스
자치
과정을
양성
##화학
새롭게
정치권
자격
##았고
##므로
계획을
##제도
명이
##게임
##시와
##우고
##관에서
##해를
브라
등과
국민의힘
인하
다소
우려가
측면
대해서도
데뷔
기업이
후보가
##릭터
직후
##소에
##신문
지구
채널
행사를
수능
##바이러스
교과
정치적
인기를
프리미엄
어렵다
##주로
##점은
기울
##액을
시범
발행
##조차
눈에
나오고
##다른
##속도로
##40
##라면
##만으로
75
국회의원
##점에
##표를
##당을
주관
##해진
그렇게
되지
##목을
싶은
만난
대표가
##정에
누적
##부문
여부를
캐릭터
이처럼
##가스
대폭
##보를
빠른
위해서
##이에
했지만
체육
위원장은
##에게는
나머지
안타
##의료
##종합
##분야
부과
##피스
향상
하면서
이명박
속에
##합니다
쉽지
##억원으로
부품
업종
##트로
정책을
교사
바다
확장
##억달러
가동
인재
최우
위협
충분히
다가
베이
빠르게
도움을
##메라
##액이
##무를
##제의
##어도
블랙
책임을
##라운드
선생
##해양
일상
##해왔다
##안은
적극적인
바뀌
##신을
기능을
걱정
공부
타고
##니까
참석한
동의
마찬
##비는
곳곳
불구하고
다음달
##인들이
##트는
내고
운전
##80
마찬가지
포기
케이
##전거
선도
##터리
상생
공장
##으로서
시장에서
자주
##적을
주인공
군사
고교
배경
기대된다
##계약
초기
단독
모아
활용한
문을
남편
바라
많았다
미디어
페이스북
기아
가을
이유는
예측
##화로
##법인
59
보조
##려면
복귀
상임
##주민
51
##니아
커피
뜻을
##질을
보도했다
메이
CJ
4차
홍콩
받지
전해졌다
##조선
##보면
고령
##만이
리더
수수
##함으로써
제3
시장의
흐름
##TA
어머니
##들로
##받아
##쇼핑
위치한
여수
##사무
단일
수소
##모델
##만원을
##제한
##사인
2개
##되기
##승을
##연금
축소
지식
슈퍼
노력을
초청
않도록
전기차
150
보이는
행동
야구
후원
중간
후반
##지면
##한국
에어
금리
##돼야
예고
차단
동반
추석
도심
##om
##한다면
300
구성된
56
해서
압박
의심
선박
##스와
경쟁력
운용
##됐고
2006년
##루션
##재생
사업에
알아
바꾸
##류를
국내외
필수
비슷한
시장에
대기
##구청
치열
관련된
##훈련
##치지
확인할
##제에
서울대
##스럽게
##수사
세월호
GS
증가한
##간다
모양
##시킬
##ED
없고
매입
진행한다
비난
##수수
나눠
않으면
##소는
##it
끝에
검증
적이
갖추
작용
대우
##하고자
##유의
##연을
##봉사
##군이
오랜
무엇보다
들어가
지원하는
플레이
경선
가격이
되어
조사를
대북
만들기
##건이
##개혁
시장을
##스토
비판했다
##어진
##행정
전세
누구나
이들이
임금
##이라도
말한다
##운영
화재
53
징역
##라우
형사
가능성을
54
차원에서
관측
상대적으로
##산을
사퇴
첨단
일단
코로나19로
##키로
대표적인
말이
##11
##에서의
강력한
한나라당
증거
호소
상위
시장이
사실이
현지시간
특허
카페
##서에
내세
훨씬
바이러스
이용할
최대한
하는데
반복
##부장
##처리
##간의
##코리아
거론
##노조
##구의
수요가
청약
##금리
10시
추진하고
##정치
##체험
있습니다
##히는
기회
KI
6개
전주
본다
이웃
##결과
높이
나오는
눈길을
##군의
헌법
유도
지분
57
있었던
활발
CEO
승리
청구
동일
##리오
나누
하겠다
고발
##철도
간담
가수
##해온
의해
##론을
대표팀
##위원회는
가치를
동물
등이다
구체적인
조치를
일자
김해
선호
이끌어
사업은
농촌
줄어들
##위기
2천
협조
##면적
##es
올렸다
부장
빠져
했던
신경
따라서
문의
지금은
열린다
네이버
1위를
고려해
##주일
따뜻
연구원은
학생들이
뮤지
##받을
##시켰다
##60
차지했다
##CC
법인
경기를
벗어나
동기
##른다
##어서
진행된다
단속
##자들에게
정리
본격적인
뿐만
상징
아침
전문가들은
이같이
##하다고
##화와
##지능
챔피언
A씨는
들었다
##이사
##가능
고통
당부했다
##지법
##억원의
입학
데다
미리
##스티
##부터는
교육을
개별
##상황
##검사
이들의
##자들을
버스
##범죄
불가능
밖에
원전
초반
이행
##국민
코로나바이러스
가까운
앞에서
운영하고
##차가
##중한
스토
주최
대학생
강제
##기지
##천시
물류
##달라
보상
고급
선임
##대와
가까이
##어난
마감
자전거
현행
답변
##호를
지역에
지역사회
##텔레
신문
확진자가
##까지는
##받았다
확실
1명
##선의
아내
흔들
월드컵
네트워크
##겠지만
##웨이
##계의
협약
북한이
##치료
##있다
가슴
확인됐다
최소화
##세요
특별한
기대한다
##25
유튜
##마저
갤럭
관련한
##중공업
로봇
김종
녹색
서민
트렌
##야구
못해
진보
##량의
부인
비정
안보
2021년
##폭력
분위기
##당한
재개
31일
유엔
3개월
##효과
남은
##운용
58
것처럼
3차
##줬다
##영업
##00원
개방
아이디어
##연맹
30분
상품을
경고
용인
##렀다
방문해
사용할
질병
수주
##기획
##사일
절대
##계층
84
##인들의
오르
결승
권한
##ic
아름다운
김정
계기로
충청
한반도
적절
##웨어
이슈
##은행은
##이기도
기후
##미술
##권의
실내
활약
##니어
겪고
향해
힘든
##리티
사업이
갤럭시
상호
호남
##만명
##씨를
보완
##됐던
##생산
적발
실시간
9시
##공동
##먼트
사항
##000여
수시
지방자치
받는다
개설
##자기
축제
삶의
시스템을
##향을
빨리
부진
##라스
협상
확충
##지수
##구에
제외한
##텔레콤
수준으로
##백화점
혐의를
##명한
불가피
##km
방지
실무
##직을
노후
내다
분석했다
지배
20대
제재
이로
85
참여한
##력은
수정
폐지
##15
당장
##물관
##권이
##개국
상황에
##세로
경쟁력을
취득
이틀
##스플레이
경주
##설팅
##이던
합격
떨어진
조언
비즈
석유
달하는
##주기
##건의
64
투자를
미세먼
토지
##축구
부상
시리즈
##동의
##기기
머물
1분기
##식에
폭발
목소리를
##지기
동원
일본의
##종의
초과
제가
카메라
캠프
진행하고
수학
야당
수준의
인공지능
##뮤니
없다고
한미
통계
예산을
의결
배달
창의
출입
자료를
##12
손을
##체가
##소에서
계약을
##예산
##시키고
##하면서도
떠나
나올
##데이터
우수한
저렴
아마
비대면
받았
##정의
무상
현금
##호선
가격은
해운
##임금
##식으로
한국은
다니
도착
지적이
##추진
재무
##판을
정부와
부실
운행
구미
심의
##조사를
이외
강원도
준공
##지검
보안
아쉬
##개로
##심의
당연
설명이다
모여
##회의에서
노출
만들었다
##성의
보급
분류
부담을
##이라면
##일이
레이
수비
답했다
김태
재활
##권에
분야에서
공항
착용
글을
63
##70
화학
2005년
##이어서
영역
##프로그램
##월드
##니터
##산시
매매
##호텔
길을
##심히
##특별
##문학
보유한
##퓨터
음성
지역에서
늘고
이승
컬러
예약
##질환
총리
스타트
5G
##보건
##질이
지속적인
##PG
이르
건의
저녁
##했기
특성
##약품
완벽
가득
삶을
대구시
결제
##회의를
##민의
##리트
##가에
우리의
##건으로
##보니
가상
열었다
파트
거리두
변화를
##소로
PC
경제적
내에
심각한
##처를
초등학교
적은
나설
66
기반으로
내용이
##단에
경험을
##포인트
위안
냈다
수치
장학
##지에서
때마다
구글
현재까지
현장에서
##만5
안팎
관계자
1회
196
있지
씨가
법정
직업
사건을
낮아
임명
선두
종료
지시
제거
화려
##시대
악화
집계됐다
보통
농협
소화
##개선
교류
##책을
이른바
규모로
유니
호주
2000년
구현
리그
받아들
##어가
사법
대책을
##기록
절차를
더해
##서가
##면서도
가로
##석을
명품
##사랑
##리스트
만한
##힌다
소상공인
탄소
기록한
참여하는
유튜브
원자
IC
LH
이같은
사이에
만들고
의지를
##중에
들고
편성
하나로
연령
##방을
이상을
##체계
##사항
지휘
장면
동참
##ww
62
결과가
그녀
인생
도와
회장이
2위
##차는
기회가
임상
10여
모습이
시기
노무
전공
나무
마치
##문이
재건축
줄었다
www
풍부
보기
전개
분리
##ing
승인
시가
코스피
것이란
모색
##어로
##무역
오바
##기능
자리에서
점이
기자회견을
##법에
##동에
##서트
화성
이상이
키워
누리
이정
가계
평창
폐쇄
군은
##사들이
초대
노선
##더니
사람의
이중
연습
아주
김성
소설
도쿄
##경쟁
##학습
##타운
SK텔레콤
이어질
트위
나눔
징계
현황
앞장
할머니
외에도
통상
장비
점유
오바마
연휴
유출
##드로
유기
모르
생존
##가로
실험
다하겠다
깊은
앞에
중에
탄생
##사한
동료
##ST
이탈리아
희생
분위기를
열심히
표준
최고위원
테마
심리
법적
지방선거
##영상
나선다
진술
오프
동남
드러났다
SBS
선보인다
자체가
때까지
가량
이것
폐기
호흡
설정
조사됐다
##건강
##타를
지역경제
풀이
세부
직무
성능
완전히
부처
올려
불리는
##놨다
평가했다
비중이
99
차이가
모니터
역량을
부족한
클래
감독이
##스에
개념
모임
##리어
##전은
앨범
##투자증권
##하나
kr
추세
##이었
유리
구청
미만
개통
업무를
상무
활성화를
##et
착수
대변인은
이용한
크리스
면접
##이란
영입
수사를
개입
##리핑
매장
6시
도는
주가
평택
질문에
결합
##여행
##평균
유입
##력으로
선출
평생
넘게
철도
##FC
가맹
부사
반응을
하늘
제공하고
아이템
생명
##ion
일제
중심의
72
느껴
의미를
질환
담긴
커지고
##수산
하나의
새벽
어려워
영양
뮤지컬
67
진행된
시작된
##복합
유동
채택
전형
국토교통
여의
신세계
##등록
백화점
내용의
혼자
잡아
있어서
일대
##호는
##상담
IP
일각
세대
합리
돌려
작품을
감염증
##시장은
##철수
##자들
말까지
세계적인
##팀은
최적
생각이
##가량
##션을
##학을
홈런
##트리
120
##실이
3분기
##공장
듣고
2명
움직임
요금
수십
시상
##식은
경찰에
총장
##진의
모두가
EU
대로
컴퓨터
손해
종사
##르신
소프트
금메달
앞둔
사용하는
##테인
비밀
라인
사진을
참여해
궁금
적합
##란히
##미를
3대
학생들의
2배
연주
검색
##수요
마련했다
발휘
대만
2분기
판정을
점도
담아
FTA
주의
알려진
게시
올린
##바로
위원장
뉴스
벤처
본격적으로
바꿔
정확한
68
##지게
대거
있다면
초등
연예
##망을
권고
발생하는
정착
무려
커뮤니
##나가
준다
전망했다
누가
##비아
##감염
길이
취재
##일까
##지자
61
비행
의혹을
화장품
시내
작업을
##됐으며
##호가
돌입
##청이
##이즈
##EC
오피스
충격
##축제
배터리
부지
이제는
95
절감
무대
제정
김정은
정상회담
5만
시급
선사
파트너
하게
손님
그리
내렸다
전담
규모가
기타
브라질
발전을
목적
##면에
투어
나이
탑재
임원
##시설을
트위터
연락
##작용
##케이션
##수와
목소리가
##고는
##보증
적지
##스포츠
아들
시민들의
추진할
광주시
자극
10개
##나다
생각을
##생명
CC
합동
원장은
가능성도
지하철
한정
의한
태양광
##조건
진정
감독의
총괄
철강
점포
뛰어난
노력하겠다
입법
떠오
긴장
의원의
곳은
산림
유력
획득
노사
20여
의미가
외에
##심이
제약
69
응원
##판매
그때
동부
##순환
대통령과
품목
대처
KIA
맡은
##센터를
과도
10만
비정규
##마켓
선제
높였다
2조
##스케
신입
##기금
##드러
가르
보증
원인
였다
피해자
##서의
##대화
허위
통보
마친
7시
##해주
촉구했다
##란드
동해
##24
국회에서
비즈니스
##서울
최다
내달
연구개발
매주
문학
부산시
세종시
여부
##축은행
부담이
74
##re
가졌다
스타트업
균형
윤석
잇따라
1인당
선정됐다
좋겠다
입장이다
솔루션
안전한
바른
##물질
##명했다
달한다
부채
##관의
##력의
마이
메이저
원의
이었다
##음에도
##센터는
내린
사랑을
##대비
양산
임직원
어르신
변동
아니냐는
창조
##총리
끝난
##전화
##해주는
##스포
높여
##관과
충전
순천
지원한다
배제
2억
인터뷰에서
에서는
사람을
고향
당일
##실에
총리는
책을
했고
안양
##국에
지연
2004년
매출이
##친다
명확
전망된다
훼손
##ou
법안
공개했다
##분간
기획재
##직한
수급
##력에
급격
사례가
그만큼
##많은
7개
보이
찾은
##TE
3천
주민들의
##명이다
##투표
##계에
요구했다
끌고
떠올
후보를
4만
침체
예능
오염
소형
상업
꿈을
진행됐다
##됐지만
단기
종교
73
##바이오
형태로
선정된
재배
부탁
민원
미래를
항상
융합
김포
만남
바닥
여파
안철수
바이든
합병
##위원회를
공략
##리드
일어나
##신도시
클럽
진료
블루
##수석
한층
11시
기대하고
투수
##제와
##분양
위로
개발한
등급
느낄
대결
미니
자신을
결정을
모으
있어야
중구
개봉
##st
조작
재판부는
다이
쓰는
##용품
##협약
변호사
곳이
맞은
##령을
##위에서
수준이다
##클럽
입증
수많은
##le
파견
기존의
아우
##인터
내에서
풀어
금액
대리
##놓고
##국을
전략을
남녀
근본
##선에
방법을
##함에
제목
연극
청주
##13
##위원장은
법무부
##주년을
진행했다
제시했다
차기
지원할
문화예술
영남
차세대
아르
77
택시
쓰레
식당
##센터에서
옮겨
주주
노무현
검사를
안정적인
찬성
표시
높이고
미국과
컨설팅
100만
NH
차지하는
제일
분야의
성장을
##공개
1층
제조업
##감한
##노총
##레이드
직전
ES
여당
##함이
때도
##해졌다
따뜻한
2시
문제로
##시장에서
외환
##권은
늘어나
고도
20년
추진하는
2주
##용차
토대로
어울
국내에서
내용은
##라우드
잡고
강의
세금
정체
##만한
만약
대해선
사유
8개
##별로는
무기
##기념
##져야
산하
진행할
저소득
말씀
지사는
##짜리
##집을
##람회
##참여
발의
추구
의견이
##수에
알려져
30대
전파
실업
##18
##재로
활용할
사업의
문제에
고등학교
혼란
2022년
은퇴
이르는
말고
##상과
합류
##지며
막기
참석했다
##각을
##공연
춘천
물러
입을
착공
조달
이래
##종을
메뉴
제공할
사이트
코리아
비정규직
##협의
간의
76
있는지
원내대표는
감소했다
##전형
여유
혹은
발생할
자유한국
승리를
김현
##하려면
충돌
기준을
기계
##사이
계기가
위에
처음이다
치러
##행사
그간
무게
1개
대표의
##위원회가
줄어든
도민
역량
##스티벌
##세에
퇴직
##췄다
이어졌다
##재는
나타나
있으면
보낸
용역
해상
그려
##진과
투명
둘러싼
편리
피해가
##국가
박정
국비
##단과
입찰
천연
##사업에
환경을
잠재
검찰이
특징이다
따로
생긴
##음이
끌어올
##그룹은
감축
의장
강릉
반박
공기
같아
내는
##로드
##14
##이었던
수수료
##졌고
완공
전부터
##안타
급등
점차
즉각
##점검
이마트
##조를
위축
메르
##적으로는
회장의
참여할
결정했다
##무원
발급
여론조사
치료를
본격화
##16
오프라인
지원하고
시민단체
민주당은
무너
협업
4대강
공연을
##고가
행복한
갖춰
##자유
탄핵
실행
선수들이
즉시
결과에
지역을
보관
##아이
##시장의
나아가
비서
소외
못할
규모는
##되자
##투어
출산
최근에는
조절
##전쟁
2019
2층
##이닝
뜨거운
##배를
##법이
합니다
이어지고
받게
##자도
유권
끝나
후보의
##심사
자문
고소
##패를
철저히
안심
갑자기
명절
금호
의사를
회계
대한항공
브리핑
보이지
구분
성격
##회와
침해
과제
의뢰
##수익
서구
아프리카
요구하는
##을까
실시한
##세는
사람들은
건강한
발생했다
우승을
캐나다
마음이
감정
서울중앙
개성
##씨와
대장
##골프
##화의
8시
3명
한강
기상
그쳤다
3D
숙박
호응
개발을
설문
##소비
수영
미세먼지
점이다
##화는
완전
북미
##IC
##지인
중장
##신이
##물의
들어서
##리면서
##타임
주민들이
##17
기업들이
경상
##법은
거짓
##자료
##내기
자세한
##물로
##포르
매달
##90
자영업
##감은
인천시
지방자치단체
맡고
위기를
##관에
##he
인지
2020
##전의
보여주는
추경
보유하고
노하우
##건에
중학교
간편
덕분에
##계획을
패키
몰아
맞이
신선
우주
국산
개발에
가속
건조
##소의
##증이
행위
##세기
현안
방사
설득
회담
연봉
##선은
싱가
78
##회장
문화재
김동
목표를
달려
비례
국민이
##세트
대표하는
##말로
##포럼
195
일방
1시간
##뱅크
##세포
서초
일환
위탁
대법원
무시
일주일
##기반
금감
배당
선보였다
가스
편안
동네
치매
3년간
스페
##체인
원활
##오고
400
힘이
##마크
연합
탓에
내다봤다
##었는데
최우수
##연대
대안
추억
##였고
허가
##됐다는
후속
풀이된다
##아파트
가공
NC
경기가
높이는
아예
참고
##들어
4분기
이루어
강하게
##청에
용산
이재명
관내
##벤처
응급
점점
삼성전자는
행사는
##리게
베이징
농가
##석이
함께하는
이자
소녀
마련해
겨냥
설비
##시안
일은
진짜
얻고
##행위
##공급
무관
이어지는
##공헌
무슨
사우
향한
##상태
미국이
살고
유발
부당
##조직
했다고
파업
경찰이
스위
친박
스피
LG전
시정
봤다
능력을
주행
5천
자살
소요
회의를
한마
이주
##골을
아웃
역사를
##데이
세워
시민들이
대부분의
88
##소와
어린이집
성인
캠페인
##산이
관계를
일이다
##드린다
마이크
신임
지출
##능력
아이폰
고정
공을
맞추
축하
협력을
곧바로
##측은
시공
상승했다
선배
##음악
김재
##치로
불거
최신
기재
거리두기
측정
전원
고등
##베이
##미널
수준을
중국이
배려
가해
계좌
##소송
과연
일시
입은
2002년
미래에
철거
100여
##됐다고
##영은
저지
공포
구단
반려
집을
다문화
수집
사기
##이브
본인
5년간
결의
##인력
아이들이
구제
맡아
##만9
##사이트
야권
부작용
미치는
런던
입국
들어갔다
승부
중대
매수
필요하다는
태풍
##농업
일자리를
속도를
확대해
곳에
안동
이미지를
2회
당사
입원
투기
##유치
메시지를
발사
코스닥
##오프
##교육을
납품
보건복지
수험
진로
##주행
공동으로
늘려
##봐야
폭행
쓰고
##단한
스페인
##신청
참여를
안산
서류
##점과
피고
몰려
콘텐츠를
인사를
이종
거뒀
상향
사회복지
##아트
##책임
##들이다
##발을
##터테인
중국은
법원
이뤄진
무료로
제도를
방식을
##재가
##식과
본부
강화를
통제
지침
늘어날
##이로
깨끗
있으나
공간을
줄여
김진
##스에서
물가
잠시
시민의
선생님
떨어졌다
##공사는
당내
관람객
중도
신청을
##기까지
##난다
높았다
소리
2003년
비율
에는
##ol
##예방
분노
꼽힌다
소셜
복잡
##임대
##수원
유행
저장
##드가
특화
기록을
김대
##NG
경계
요청했다
다르다
##치게
한국에
고성
앞세
비용을
목적으로
##억원에
중견
신인
장관이
보육
내수
재개발
충족
빅데이터
휴대폰
부천
고객이
엄청
선수가
추모
씨의
먹고
##선언
복원
79
30여
어깨
입고
일정을
##리면
추진해
이라면서
싱가포르
있을까
신체
김상
상상
다수
의존
도약
##트가
##담당
##화폐
적용해
국가대표
만날
##해질
놀라
중동
##피해
민생
##31
공익
수익을
영향으로
미국은
영상을
경기에서
기업을
정규직
##설을
지속가능
세상을
가야
무소
##DP
아베
그를
실태
테러
##미디어
내놓은
창작
실종
가전
사로
##네시아
##스테
진행되는
변화가
라디오
물리
##광역
비율이
기업에
##모를
##el
내내
##군에
5시
먹는
특검
이때
블록
모니터링
##동이
##OC
이유를
개선을
##28
기대를
##팀이
유해
##처분
분쟁
올랐
##어는
한국을
좋지
커뮤니티
공수
##정과
매력
이벤트를
경우도
흘러
##유산
양국
시사
##사업은
##복을
##시장에
##치의
다녀
마치고
민주주의
공시
##든지
소규모
미사일
되었다
민족
얘기다
출판
확진자는
시작해
화물
해수
83
전투
보존
##ed
##디아
##전지
제고
남양
증정
뒤를
10대
김경
원래
집값
##다시
했는데
##단으로
경험이
서해
농산물
야외
수렴
유족
2018
류현
단순히
화려한
##민은
##머스
지표
최초의
##러리
분석이다
운영을
사회공헌
1호
##안보
한국인
음주
##일은
중고
##아시아
강화하고
댓글
##문제
##았지만
##화하는
##화하고
여의도
사무총
제주도
공원
추진한다
맞게
생각해
사람들의
조합원
##디션
정도의
체포
250
나왔
콘서트
아빠
그럼
격려
##PC
##중인
현장을
중순
단축
오리
들어간
000
타격
이른다
상관
몸을
한국이
이사회
치열한
서부
구상
철저한
실적을
벌금
##르지
출석
유형
1심
##위원은
부적
시중
##확실
마쳤다
공통
박사
##지역의
짧은
정해
##었을
##차로
##잡고
인도네시아
권력
정식
국세
갖추고
측이
##이블
광양
경남도
개헌
목포
포장
털어
##작업
방향으로
납부
극대화
전망이
##산업의
위기에
한국과
##21
검찰에
##사례
##층의
##보자
제품은
##지다
사이버
병행
필리
준수
진행한
기록하며
스크
압도
부대
리더십
벌이고
K리그
부부
##박물관
대형마트
##서와
##미나
않게
불확실
과학기술
지난주
오피스텔
동양
비핵
##방안
##액의
갈수록
저는
순으로
디스플레이
##전과
안에서
86
넘겨
한진
##준비
교통사고
##27
격리
학생들은
시대를
##싱턴
##정비
있었지만
꼽았다
연방
김씨는
진행하는
##기업의
높게
후배
##더라
성공했다
분석한
##향이
##같은
높아지고
원으로
파이
##리도
부각
그냥
전월
10명
##대응
면적
유로
확대를
수백
##26
##ac
충분한
드러냈다
마산
사드
##달아
동구
최저임금
상태에서
방치
알게
불어
##정상
이뤄질
에게
##되었다
##전으로
선별
##OU
연금
사전에
해제
##장도
전수
계산
방향을
모았다
##실은
대상이
야간
기업은
##기자
상용
아버지
예정인
근로자
남부
종류
독자
신도시
이수
이용하는
해당하는
##보가
빠진
##나마
재생
##보기
보인
##비로
##평을
LED
IS
면역
사업으로
시위
생각하는
어려울
된다는
주목된다
주가가
무산
##질의
모은
##시장이
눈을
##감과
국정원
##조치
가격을
3시
상당한
테스트
계열사
대외
막을
##곳에
개인정보
뚜렷
##경은
##고기
물을
고속도로
정부에
원유
한해
성적을
사건이
##스탄
##이의
##트의
##급식
열렸다
감시
분야에
비교해
배송
포럼
##지원금
리스크
살인
실정
낮추
풍부한
무소속
김기
실질적인
금강
##접종
유일한
##캠프
##계는
적립
조만
##됨에
떨어져
검토하고
새정치
2021
##은행이
신흥
감염병
전무
없애
##점의
골목
강행
이유가
때부터
요리
##하려고
독특
소개했다
부분이
MB
71
##터를
##법상
편집
##부로
광명
##부처
클라우드
지적이다
신축
일어
세상
경북도
##심한
곳이다
속도
3억
##시장을
가시
힘입
미칠
경우에는
자발
무선
##인권
벌써
##근로
##곳을
투쟁
참석해
##지원센터
포스트
##로그
##장치
##DI
개의
##농협
방어
하자
능력
모르는
##23
ET
수리
##토록
적응
김용
##허가
##000명
돌아가
끊임
##만8
발언을
##민이
##낸다
##나갈
조만간
항의
사내
##가락
부분을
이들을
##적한
감면
매체
체크
##카데
게다가
##29
원정
##내며
##론이
보일
매출은
진상
87
자연스럽게
##순위
##전시
##혁명
무대에
##신고
윤석열
기사
연료
집에서
당분간
사용해
면서도
문화를
개정안
대비해
환영
##스트라
2단계
잘못된
##밀한
##치며
증시
##구나
##와는
비교적
국민의당
30년
점은
현역
의혹이
도서관
차별화된
자리에
다짐
생활을
가능성
소식을
분명히
##점이다
##화한
##된다는
교수가
대통령을
##균형
캠페
##장관
겪는
다운
##해지고
##가치
면세
별도로
##미래
듯한
얻었다
##성한
최악
상가
타이틀
워크
##과학기술
##파이
CCTV
##소재
##변화
학원
긍정적인
대화를
나서고
##도서관
유망
##MW
간호
##억원이
이유다
##리다
장르
사고가
걸어
조속
유가
##동강
##버그
돋보
나아
얻은
가게
담겨
##하자는
집권
드라이
집에
A씨
PD
공화
공개된
LG전자
##페이
FA
##경기에서
사이에서
##PGA
안전을
##30분
섭취
교환
40대
승객
얻어
##주에
##이용
수험생
##산화
##인들은
자금을
임기
잡았다
##재산
파워
분위기가
##같이
후보자
없지만
7년
간부
라이브
##겠느냐
com
강경
앞선
##실로
##소방
##교육청은
소프트웨어
##여성
기조
후보로
높이기
고객의
기술이
##비와
청문
##사건
시원
송도
전세계
##인에게
김연
##들과의
##들로부터
##호의
마련됐다
##통상
한국당
승진
이뤄졌다
##스턴
자유한국당
아는
##과장은
보여주
총장은
##관련
현장에
물량
연다
시의
##경북
준비를
4명
각오
##식에서
포함된
폭력
촛불
##했습니다
탈락
시달
유명한
끝까지
02
##여서
##지어
##현은
자원봉사
담고
##놀이
ICT
지원이
##정으로
상환
존중
워싱턴
구조조정
##로가
유아
의정부
6년
##대행
##하라고
기획재정부
경매
나가겠다
정원
독서
##스키
##길이
방문한
##로의
내정
의식
##사태
부서
말이다
##부담
차원의
힘입어
##였지만
프레
투입해
IB
높일
심화
스카
##군을
받아들이
환자가
출근
회사는
이사장
관리를
변신
신분
집회
1일부터
현직
참여했다
##대문
##만원으로
전후
사로잡
별도
##시청
환율
찾을
접목
협의를
SU
내놨다
조사한
앞장서
##재판
유일하게
사례를
##료가
인용
##대교
불과하다
##자본
창립
비중은
##본부는
##am
말해
밀어
찾았다
증가하고
##구와
백악
강연
다행
##페라
분석이
케이블
##45
##서비스를
##il
저렴한
처분
##구로
감안하면
입시
결과는
서울시는
미국에서
찾기
연수
89
신제품
에이
수성
제안했다
##국장은
둘째
학술
상당히
부장판
##관계를
##만6
주지
새해
영광
##재난
자아
##교사
달했다
이번이
제출한
##결을
그래도
베스트
느낀
##is
운영한다
##지대
##체의
3조
IM
진정한
촉진
##회관
시작됐다
별도의
보냈다
##지주
그만
98
##인에
##오염
##TX
##만원의
상영
경력
세트
##인증
9개
판단했다
김민
잡은
있음을
얻을
##고속도로
##공정
인기가
소환
아직도
종로
일환으로
##경찰청
지닌
180
선보인
##은행의
##금으로
태국
항목
정도다
한국에서
한때
계절
개척
##평양
주한
정지
##쪽으로
감소한
##학년도
##중심
##계올림픽
##조트
##석은
준비하고
##동물
##드라마
##색을
했다는
##제철
##ent
금융감독
올해도
누군
조용
규모를
전역
희망을
조명
##선수권
50대
현상이
아닐
##함과
##시코
##너지를
이민
기업들의
##소시
전부
##받침
취약계층
유연
소송을
검찰총
##카데미
여러분
##창업
즐거
이상으로
협약을
맞서
적정
동시
지지를
압수수
사람들
기여할
문자
여성의
부활
아끼
##한테
재능
발달
회사의
##스럽다
주어
무죄
배정
당국
##재해
##회복
##주주
3위
북한은
항소
진주
쇼핑몰
##식의
##생활을
원격
결코
##장애인
지원해
방해
##장비
세계적
일하는
##선으로
내비
요양
내외
급여
양도
지역은
82
즐기는
또다시
사태가
##금지
노동자
끌었다
피아
4시
##교류
##피아
##매매
무릎
##렸던
심판
면제
묻는
##권과
##온다
운항
비중을
이영
##하우스
96
나를
##35
금융당
썼다
##들었다
제휴
##르기
나타냈다
보고서
선진국
행정안전
##통합당
##요금
출연해
멘토
팀이
##숨을
시설을
전체의
##감사
득점
장착
경쟁이
##세의
프로야구
##실장
공사를
박지
그에
##화문
깜짝
내지
한은
##만7
필리핀
##퍼스
##업무
##유통
운동을
##달라고
파괴
매월
문화체육
이성
가이드
주기
##탄을
최소한
살려
로드
지목
피의
추락
##유플러스
낙동강
##일에
흥행
사랑의
사안
이전에
##력발전
##튜디오
성공적으로
않을까
앉아
현재의
거뒀다
하락했다
느낌을
기반을
특유의
##간담
데이터를
선보일
재발
실시하고
##라스틱
싶어
발주
청소
육아
24시간
컸다
쪽으로
정작
분당
대목
도서
주민들은
##양을
절실
힐링
##사업의
꼼꼼
무대를
5명
발효
한일
구체적으로
휴가
전인
##사용
##플루
##위원회의
진학
##평화
경쟁을
레드
수여
##고용
내야
접어
##타워
2시간
##장한
위주로
##FA
##면으로
대사
범행
주장이
##터테인먼트
먹을
##NA
이익을
고속
##모씨
##졌다는
##사들의
##만4
웃음
적절한
이기
스테
진출을
지역주민
접속
애초
대해서
##분석
가고
##료로
97
클래식
##급여
필요하다고
철회
주간
여객
국방부
##000억
탑승
##겠습니다
받아야
##칙을
나의
예비후보
신호
투자자
소감을
시대에
중기
자회사
정밀
아무리
4천
하천
뒷받침
파리
##히고
##즈는
##사회의
화이트
##경이
##모델링
진행될
말하는
다채
명시
손흥
##사들은
그리스
정무
##당성
##셔널
동생
모델을
경우는
언어
이어진
아무런
##팀을
두려
발매
확대하고
증상이
신중
온실
없도록
이로써
전국에서
##ro
##정당
곳에서
마련한
역전
쓰레기
##늦게
형태의
뒤집
무더
자제
알리는
도시재생
주제
SM
가중
원장
여파로
살해
추첨
대검
업체가
자율주행
##디자인
##연이
##보장
들려
##위와
자가
나섰
드론
3배
LG유플러스
세계적으로
분기
순수
펼치고
깊이
##사업으로
근육
##물에
하이브
이끄
건너
##수준
유지하고
194
정책에
검찰의
특혜
기업과
##건설은
공수처
과도한
##수술
##대사
##부품
방법으로
94
남구
어우
구성해
가치가
않다는
##연의
##22
##가며
해운대
지적도
##어촌
##차량
매출액
올바
##물은
뉴딜
##매김
서울의
##야말로
상당의
조국
이하의
이미지
음식을
콘셉
것인지
손실
비율은
지진
담보
의회
다섯
##널드
무한
북구
도움
자리매김
##에게도
정유
택배
중반
93
진행되고
작가는
내년부터
왜곡
주장을
없었던
지명
##다니
##키는
수강
가능해
승점
203
활동에
사업비
전화를
##부채
아닌가
보행
##그룹의
동북
않았지만
유사
##안정
##합의
대표이사
넥센
##나이
면담
130
##이지를
제품의
전당
이끄는
##스라
논의를
지금도
우려를
##졌던
사립
아이돌
전남도
공인
들어선
동영상
##통을
넣어
것이라
##자이너
매력을
##방안을
안성
재활용
재벌
엄격
첫날
아이를
인천공항
붕괴
제시한
##료는
대표와
##우기
자사
##운동을
기아차
송파
않기
##생태
초점을
##일로
##법으로
##즈를
제외하고
공정거래
밀려
들이
발간
학생이
05
##공학
독특한
스트레
명칭
MOU
##왔던
일관
꿈꾸
##여명이
냉장
측면에서
##MC
##iv
##숙한
휴대전화
위안부
연내
##절한
##판에
마주
##주차
##기계
늘어났다
##건은
의류
##kg
##동조합
##신의
확대할
##화해
이뤄지지
생겨
##재정
모범
극단
아트
##줘야
##기술을
어우러
##렸고
##산의
##실험
넘치는
예상되는
대량
명을
관세
부총
돈이
중에서
라이프
개최했다
##수지
인적
사용한
시기에
초래
2001년
SUV
슬로
메이크
채무
마시
섬유
##연은
GM
논란을
##테이너
말한
코너
가격에
무인
현대중공업
세웠다
##산업단지
소중한
반영해
5대
입점
##정지
인테
##소한
##전환
##모임
흥미
죽음
팀을
황금
세계에서
##출을
수준에
않아도
변호사는
##소프트
실효
순매
이르면
확보를
갈등을
마지막으로
운송
중점
##사업이
1년간
있을지
터뜨
##박한
성공한
##번에
##들에게는
재해
객관
좌우
뮤직
멀티
조성을
##지역에
거두
지원에
인접
##00만원을
초고
시의회
농민
##개가
##본다
취급
페스티벌
이태
##했다가
##00억
81
##만3
신재생
식사
##운전
비가
김광
정보통신
곳으로
##연합회
포털
부모님
군민
소식
되기
때보다
회사가
영화를
되도록
지리
##거리를
주목을
2015
##역이
뷰티
상주
최강
중국과
분산
부회장
##학기
연계해
설치된
##센티브
예전
지낸
세탁
전까지
리모델링
팀의
체감
##치기
##졌지만
멕시코
##하더라도
지역구
##라톤
##에서만
사후
민주노총
정수
귀국
않는다는
한류
개관
##인재
매출을
나서는
##환자
고객에게
도모
미군
수혜
연관
입지
자칫
좋아하는
##층이
##공사가
소장
많고
모습이다
##가와
##실과
이대
현상
관심과
광화문
##체계를
현대자동차
대다
막아
규제를
##ig
##2천
방송된
##인터넷
그럼에도
국가의
##있게
다루
아니었다
미래에셋
확인했다
##자료를
외면
응시
공개한
##기관의
##채널
프로모
##억5
2루
엄청난
문화체육관광
본회의
##ec
보여준다
안타까
방안도
##부에서
##문화재
벌였다
줄이고
##신용
기간에
##시키기
산학
남해
전달했다
##곳이
방침을
훈련을
박원
소년
패널
##티즌
매니
과태
권리
평가다
건전
돕는
##레인
대상을
아시안
상태로
편입
대대
##하다가
대표를
GDP
##듯이
AP
##선에서
드러나
늘어나는
연대
##리케이션
저축은행
어른
맞지
차이
크루
##번호
흐름을
##쉽게
올해부터
민주당이
110
올리
##놓은
가능성은
행사에
머리
대표이
추적
맛을
##콘텐츠
의원을
##방향
대중교통
상승세를
인근에
연세대
차량을
제4
차를
무조건
##들께
순환
요소
등판
전교
널리
이번에는
##당에서
신뢰를
##끼리
전라
잠실
##제약
회의에서
그들의
세무
어려움
개발해
2014
자유롭게
성폭
반등
이사장은
나도
##명에게
##주와
티켓
엔진
떨어지는
##청소년
##배우
빌려
##오픈
1시
작곡
예정된
원천
##장인
선수들의
뿐이다
달아
##토론
박영
인센티브
추산
강화해
TF
성폭력
뿌리
수치다
어려움이
##푸드
##융합
거친
있으니
현재는
변화에
위생
##평등
##곳의
와인
전용면적
체결했다
작동
예를
경제가
##이노
크로
ESG
##시마
##었으며
##업계에
##영의
증명
##위원회에
김치
법조
노력이
FI
##확인
직원들이
##포를
##문의
##말을
임신
##기본
실시한다
##협약을
사회의
의원과
인건
이은
장소
예금
In
내리
탄탄
교육과
이스라
고객을
##ation
심사를
아니면
충실
##목으로
이스라엘
직원이
세운
헤어
##악한
연구를
당첨
인류
##작을
운전자
행사가
한글
패턴
비리
한창
##방이
##티스트
모으고
교육감
뒤에
##협정
판매하는
##하기는
서울시장
상하이
단행
##네트워크
농림
가짜
개인의
##뉴스
시점
사업이다
언급했다
운영에
소음
거점
##LED
유치원
##간에
학과
##만달러
##준표
##리즘
파주
줄일
##시리즈
때가
주재
##화할
의도
남겨
데이
이동통신
건강보험
의장은
3회
밝혔
약속했다
수업을
민선
전국의
마찬가지로
전직
모른다
논의가
상한
호응을
항만
중증
포트
##편의
게재
이천
일부를
기온
실적이
##하라는
중장기
수천
해마다
공고
KTX
괜찮
##DC
##AI
이밖에
설치해
##방지
클린
##지니어
인턴
금속
인상을
한달
##결제
##더파
엇갈
가깝
##레이션
##문에
가능할
이외에도
2016
트렌드
쉬운
산업통상
마리
지금의
1로
일본은
타임
제로
##탄소
내년도
##층을
말로
함유
스케
##림을
##반기에
예산이
##자다
선을
이병
위험이
119
##버린
김병
단위
국내에
##추행
조심
않지만
통행
기름
되돌
에코
업그
중부
식으로
직장인
이어가고
뒤늦게
방송을
##사항을
##스카
대출을
국민연금
찾고
기쁘
유관
##망이
도널드
맡았다
당연히
##안의
KBO
어렵다는
메모
##정책을
##as
편의점
해고
우울
오랫
##아웃
작가의
숨진
시술
강동
정황
##용으로
나란히
하이브리드
아니고
상승한
전통시장
시나
##되기도
청렴
##아는
##포먼
일고
보좌
펼쳤다
##회계
갈등이
##대학원
감상
하남
경비
공기업
재직
##시설이
저희
전반에
이겨
##차별
##마자
세미나
과정에
크고
여성이
생기
가질
대상은
##TS
부분은
화면
사각
않았던
##협상
점수를
알리
급락
선포
2012
날씨
시작한다
성장할
시흥
##뉴얼
부터
기업으로
##제일
##계열
##로도
선정해
담았다
##시스
폭염
넓은
국회에
대회에서
오랫동안
거제
3분의
오를
생태계
##캐피
##되도록
받아들여
만든다
산업통상자원
국채
2010
아이가
그렇지
강요
시간에
##PS
##용을
##아버
시너지
물어
확인하고
에스
##천군
경찰청
것인가
##시간을
노트
2017
주식을
BMW
곳곳에
군산
못한다
해군
지사
반대로
##만여
위해선
나오지
##받지
##형이
일각에서는
소폭
믿고
찾아가는
김수
운영할
찾아가
네티즌
밀집
부회장은
환자의
스크린
것이고
##심으로
##회로
홍준표
상시
MC
발전에
성향
##견을
봐야
밀양
원주
10분
##대회를
잠정
가족이
장을
최악의
제기됐다
SS
##검토
사건의
수차례
가볍
평가가
##겁게
흡수
한우
주변에
기업인
압수수색
하더라도
만났다
##마를
주유
관찰
##르크
대응을
##주도
##메이션
##미는
전액
생생
패배
박성
##어져
판매를
이건
##위권
예상했다
이례
장례
대립
캠핑
공영
조언했다
##방에
신용카드
애니
진행해
##규제
백신을
구직
##65
서울에서
##폭이
사업자
대면
요구를
배포
잇는
뛰어넘
선보이는
이혼
##방역
확보한
##공무원
경로
마이너
##브랜드
92
##소리
포함돼
창원시
열릴
##교회
12개
올바른
동일한
수술을
증언
되찾
필요성을
##당에
학생들에게
홀로
2년간
들어가는
수확
##백을
하던
##홈런
김지
##연히
이야기가
재단
마음으로
없기
고수
조금씩
협상을
서명
원에
##할지
비례대표
보강
있었고
##도에서
##해지는
인간의
바람직
퍼포먼
CN
끊임없이
##느라
싱글
이렇
산업의
수면
억제
정도가
치솟
정책이
##통화
강남구
출신인
치유
앞당
도발
##고도
음악을
##바다
디자이너
비판이
청정
포착
결정할
단순한
##보드
##계약을
2개월
구축을
##레일
비전
고스
##유예
3층
이룬
교육부
스웨
갖는
##초등학교
조항
##산은
평양
굉장
정세
보지
##게는
##그룹이
전략적
플라스틱
속에서도
##75
리얼
요구하고
##언더파
드림
정확히
늘어나고
##oT
신동
화상
공동주택
##비의
종전
관여
##월드컵
1단계
정례
왼쪽
##문은
주류
상처
미흡
심지어
원이
##대회에서
구속영
특성을
순위
비타
메이저리그
##수급
##스쿨
신속한
측근
갖게
스님
ETF
##역에서
##소시엄
제공해
입장이
놀이
만기
기능이
##뤘다
않겠다
학교에
최고경영
예외
기간을
##치에
##실장은
10년간
##설명
느끼는
주문했다
##아동
11개
지주
거세
쌓아
견인
##200
결론
기소된
네덜
얼굴을
대회를
유승
든다
##빌리티
대부분이
##대전
뜻이다
반박했다
분석해
##자산운용
방문객
##퍼런
##근무
토로
이용자
삭제
외교부
##효율
##에서부터
##관으로
건강을
##르트
대답
줄이는
##진에
##미가
##연구원은
##금과
걸려
가벼
##부지
굉장히
##영이
##끄러
되면서
급격히
##만은
물론이고
만들어진
##마스
중국에
다수의
불황
고용노동
40여
##목이
터키
보여준
##DA
영향이
느꼈
공동체
##바지
##ay
홈페이지를
##리포
##비율
생산하는
입사
LA
앞세워
##국인
##88
수질
심장
##서로
비트
인력을
꼽히는
강도
140
600
이준
오토
여권
##절을
별다른
##박람회
스티
식물
강화하는
시선을
상황은
곳곳에서
지향
컨테이너
중에는
합쳐
##었습니다
##신은
사고를
패러
##러스터
여기서
해결을
포함됐다
무리
한계가
비용이
횡령
모습으로
##작가
마련할
##명에서
내일
지난해부터
훌륭
규모다
어떠
1만5
등교
배상
tv
삼아
몸에
줄이
이후에도
관중
본사
꼬집
##본부장은
명령
얘기를
##는가
8년
##측이
간접
당한
맞춘
물질
번째로
##웠던
##고객
##두에
##진흥원
아산
엘리
인사청
더블
대구경북
연설
##연한
감각
기증
최순
보면서
로맨
총리가
체제
3학년
##청의
##으므로
LTE
관할
전지
##목적
신라
구리
통해서
커질
해주
해안
##궐선거
4개월
##박스
5분
근처
##고한
측의
합작
##사무소
막대한
제품이
##ECD
##금의
##지수는
국무총리
거래를
사건에
손해배
중국에서
##권도
뛰어나
지난해보다
바뀐
사흘
가서
생각하고
##국장
차질
##용은
전국적으로
휴식
##업에
질의
걸린
행위를
##가정
완벽한
그럴
##주간
##성으로
##아리
문제의
마찬가지다
사찰
손에
역사적
골든
상인
라면서
독도
확산을
협력해
##블록
OECD
경기에
소독
아이들의
동맹
적자
모자
초등학생
실정이다
웃음을
영동
온실가스
국민을
산불
##주얼
마스크를
성실
##베이션
정의당
##린이
올리는
추진을
저소득층
##하니
마크
맞고
대표적
측에
위원장이
감안해
스프
골드
협력업체
성명을
##트에
관계가
##곳에서
개장
철학
일선
##고에
한국전
머리를
회수
하락한
그나마
##담보
전격
4강
##셨다
나가는
북부
판매한다
기존에
자가격
수를
##려야
비교하면
아시아나
##상승
장성
##감에
일찍
맞았다
##33
##시한
야생
수시로
연일
출간
청사
삼성은
당원
노력하고
##밸리
##인치
한마디
지분을
신천
태극
공장을
진실
하나인
벌인
불편을
생애
향상을
50여
실용
종이
##석의
곳을
업그레이드
##범위
반영한
3연
우대
출신의
신혼
##우가
기간이
마음에
살펴보면
타이어
만만
이지
##락을
성사
##비에
##다리
##여자
직원들의
1번
유효
바람에
어디서
##과정에서
선착
맞대
기각
계획이
되길
금메달을
##팀장은
VR
해체
##집행
영업이익은
씨를
마침
만성
아니지만
##하였다
장관의
과일
##공제
탁월
에이스
기원
표창
##편을
마스터
##학원
기자간담
상태를
교회
고스란히
차지하고
아티스트
조사에서
마련된
업계에
없게
정상화
도덕
##설계
천안함
실시했다
LNG
다이어
고려대
다채로운
수원시
IoT
서울중앙지검
사장이
축산
벌어진
##까지만
##요한
펼쳐진다
받기
신형
들어갈
방안이
1대
사람들을
##닉스
서서
당뇨
지역으로
먹거리
차관
##차이즈
방탄
가맹점
비판을
적합한
##플랜
사건은
과천
산책
패키지
임차
환경부
투자가
의료기관
박차를
누릴
나쁜
AR
싸움
부정적
##1천
열풍
경찰의
감찰
##포구
##모집
##밀히
##44
##지않
##우스
4조
##위원회에서
##물과
탈북
##살을
##치면서
목숨을
##었기
역임
당국은
시민이
출마를
##학회
거주하는
지나치게
##금속
##보조
담배
개그
시행령
혁신을
이낙
1분
있느냐
끝내
석탄
##ER
##군과
추정된다
우리나라의
해명했다
금융위
##시스템을
2013
모의
급식
이어갔다
##현대
##일자리
비싼
부분에
신공항
오르는
91
테크
오페라
스탠
이슬
##un
100만원
가족과
어렵게
##스팅
부산의
##진료
누리꾼
별로
검은
해결할
거둔
국토부
사회에
##업체인
연동
##77
1위에
조치가
채워
구성됐다
##홀에서
##트라
조회
다음날
제기했다
##매를
여행을
##위원장이
##법과
사모
한양
선택할
보며
세포
제품으로
co
부착
조각
##반을
##씨에게
승인을
출동
##드의
세제
구성돼
##긴다
운영해
특례
파격
확인한
수상했다
강좌
현실을
LG화학
윤리
제기한
1998년
스튜디오
육박
인사청문
##99
유예
심한
플래
모델로
이나
이모
감지
CO
동행
시기를
가능하며
00
##기사
##체제
눈이
선전
행태
이름으로
##검사를
갈아
통산
사항은
와이
##만으로도
3000
##진단
##디스플레이
관절
부패
##선과
아니라는
반대하는
위해서다
준비하는
노조는
유전
청와대는
##렬한
않았고
##ot
돼야
모르겠다
색깔
연기를
##중이다
어제
##경찰서
조리
많지
청원
도의회
무용
##타로
불구속
##랜차이즈
청춘
브랜드를
국가가
돌봄
삼성물
방법이
##84
프로젝트를
매진
유가족
##조의
##벨트
##아의
메달
학생들을
세금을
올해로
소비자가
접종을
##환경을
지어
5억
아픔
당의
##서구
신속하게
##당과
올리고
이낙연
사태를
오세
수사에
애플리케이션
대한민국의
##지역에서
2025년
동서
##생이
제기되고
인테리어
분들이
보내는
대단
노하우를
본선
FC
시에
멀리
##실적
연계한
팬들의
조사에
##풀이
교원
북한에
책정
193
말에
넘어서
도출
감동
독점
과목
상금
자신감을
고개를
끈다
합리적인
조건을
중복
프로그램은
부정적인
부드러
특강
김대중
##하지는
##SI
LC
2인
집단감염
능력이
못했던
수거
미얀
1999년
##처벌
합의를
공간으로
200여
##수업
네덜란드
경제의
아이들
박물관
##트롤
매도
화합
##트랙
미국에
선수는
시세
##국에서
여전
획기
판매가
조세
대우조선
요인
2011
여름철
##국으로
것입니다
마이크로
속도가
16개
돌아온
기쁨
긍정적
##첨단
중소형
##이상
다름
마련하고
우즈
화제
올해의
##보상
교섭
의왕
탈출
발표할
질문을
LG전자는
##청과
기성
##세한
빼앗
##타이어
참여하고
##GB
##수입
힘들다
2학년
검출
새마을
##취를
##센터가
메인
버디
성공적인
근거로
##값이
만나는
활성화에
연말까지
신장
5배
중개
강화할
고시
간담회
사업장
에어컨
방위
단말
경유
출생
실망
##자문
프린
유리한
##스케어
명문
하여
방한
타격을
두드러
##금액
육군
##한데
주장하는
개최한다
뇌물
시민사회
데는
##조에
방식이다
##체에
여건
르노
##보며
자료에
주부
유지할
김선
챙겨
일본이
위법
소비자들의
실력을
트레이
보여주고
불만을
##카페
롯데백화점
##어지고
##도어
생길
예정이며
##주인
협박
##시켰
증가하는
학생부
국민에게
반환
분석된다
권역
이름이
광복
노래를
저자는
2023년
김승
스키
도입을
아이디어를
유료
##역사
금융위기
증권사
방통
다각
다룬
유전자
다해
미뤄
솔로
회사를
##추지
##cm
190
박원순
인문
의원들은
책은
중국인
범위
일산
##위원장을
##국과
분담
지능
준비했다
주차장
분위기다
오른쪽
사람들에게
안된다
국민들의
주민의
판결을
##창조
이용객
의원들이
KO
체납
중국을
생물
컨소시엄
자치단체
##72
스토리
홍성
평범
것이었다
남겼다
##트와
여부에
##폴리오
신년
안다
1997년
보조금
고조
보고서를
스웨덴
유용
행보
꾸준한
대학의
세련
##결정
잊지
집중적으로
이메
미얀마
활용하는
시즌을
일원
##프리
떠난
소수
안방
아직까지
스트레스
편이다
KT는
차가
검거
가려
이씨는
##업종
삼성전자가
##남도
통영
1명이
##정원
##ut
민주당의
인증을
찾지
들여다
물품
하나다
지지율
##지원을
아끼지
확보해
##IP
160
허리
사령
##에서다
출시한
산정
줄이기
3단계
것보다
유흥
논쟁
##SA
말레이
##정보를
혈액
아마존
한겨
##85
관행
사용자
내걸
##임에도
부문에서
지원사업
보편
소리를
##주의를
토요일
6천
보전
##으로도
##형은
##친화
점에
분할
민주화
스페셜
워낙
##북도
높아졌다
부르
포르
월급
마약
자존
##막을
2명이
가면
##미터
뒤로
양극
통화에서
사태로
##감도
##문화를
세입
##주군
선정했다
##케미
성추행
시대의
##부대
말라
투자하는
모습은
바람이
흔히
플랜
나타난
##된다면
상속
고통을
##구에서
것이며
비타민
입건
##바람
반응이
시나리오
트로
##고의
##발전을
화제를
##류가
##지표
공적
토크
전임
과시
그게
연결하는
체계적인
메르스
와서
정성
이적
뽑아
출국
사랑하는
##닷컴
활발한
삭감
주목받고
정한
첫째
0시
연평균
수익률
아름다
대전시
저항
기록해
이내에
생각했다
##벤션
입장에서
자립
교수의
구축해
상관없이
##현장
##체로
눈물을
커졌다
소재로
##세권
디자인을
의약품
더욱이
##SC
의문
들을
저하
걸고
1등
기대감을
제품에
알리고
빠졌다
##제품을
##노인
즐기
##케어
시청률
17개
부양
따져
기준이
실시간으로
지정된
일어난
의지가
프랜차이즈
##전용
결론을
직면
차지한
매장을
후보자는
차로
옷을
##화될
불과했다
출시했다
도중
부딪
해임
##설이
##팀의
맺고
##국대
점유율
호소했다
키우는
##하기에
##드리
기분
대통령에게
모양새
부장판사
재현
김모
정신을
##도급
##병을
원인이
##았다는
##당국은
산업단지
의미다
##는데도
학생은
중립
안전하게
막판
안타깝
고가
입소
그랬
##센터에
##서치
보내고
장난
사물
규정을
영등
주가는
##하느냐
치료제
##원들이
붙잡
재판에
10억
내년에
주방
##정신
장식
투자해
팀장은
국어
단백
##이와
지인
그것이
넘어섰다
최적의
말할
관측이
##터미널
파악하고
비상대책
##심은
외식
##유를
홈플러스
##니스트
하나가
충격을
발생하고
체계를
##리콘
있다며
A씨가
실력
드는
출자
냄새
제2의
불투
방법은
사무실
허브
##보안
알파
안정적으로
신재생에너지
확보할
금리를
##별한
말은
공산
조지
지역민
##재의
명백
그중
성폭행
공중
둘러싸
5000
##의약품
벌여
##55
인구가
그렇다
낙찰
출하
적어
트리
톡톡
참가한
자진
확보했다
시인
겨울철
특성화
발탁
##동에서
혁신도시
강조한
간담회를
##TI
##LS
높고
기자들과
그렇다면
고유
##ad
목격
자부
재고
##우며
##66
후보와
전체를
한계
롯데마트
주장하고
그랜드
선거를
##인사
15개
문제점을
남한
탄력
##운드를
날아
충남도
동영
이뤄진다
지난해에는
개정안을
아니라고
20만
요구한
증가할
사회를
간판
##면에서
관리하는
북핵
기념해
지상파
여는
역학
관리에
공급하는
일일
##지역으로
##주식
##건설이
나은
##산과
자동으로
교육과정
바라는
남긴
확보하고
말도
임직
##oo
일본에서
인원
##명령
15년
##로로
SK하이
IMF
유치를
추후
전방
전시회
부평
##삼성
기숙
생계
하향
원자력
4억
꺼내
중요성을
파티
##나눔
빨라
말레이시아
##TO
잃은
##차에
음료
억울
본인이
##기관이
1월부터
메이크업
선호하는
재료
과정이
박주
선언했다
원인을
논문
##마케팅
##름이
세계를
항공기
크지
연초
달라고
기후변화
맞물
동남아
액션
성분
해양수산
러브
싶었다
구체적
사실이다
자체를
##연료
##역에
스위스
고려하면
남동
최상
상담을
플러스
다큐
이상인
프로그램이
쓰러
학교를
받으며
정치인
된다고
답답
##산에
반성
게임을
##세다
##의가
후에
이뤄지는
##되거나
##발표
##기업이
문제와
박종
비핵화
##자로서
##인구
##법의
##품질
회장을
시가총
수준인
영웅
참사
##로에
발생해
간다
##활동에
보복
##동은
줬다
과세
일종의
바닷
구조를
31일까지
나노
당진
##고와
갖췄다
서면
갑작
기사를
##보수
##em
##관리를
매치
보다는
100년
여겨
가난
대여
신한금융
물량이
##부동산
##답게
폐기물
출신으로
마련을
사람도
공사가
##MA
소극
특성상
##이트를
최순실
##나라는
속속
제네
공정한
tvN
약속을
다할
있어요
선행
며칠
기자회견에서
해결하기
연애
##전철
##진보
업체는
지역별
범위를
KB국민
이어져
생겼다
온라인으로
주시
했으나
##계좌
##패로
2연
확실한
시간은
한국시간
조율
##형으로
##34
나타나고
어떠한
##축산
수준이
의혹에
##마리
귀농
부합
##PA
##화되고
##받는다
제목의
##았는데
제품이다
불공정
##설비
적용한
지키는
마땅
##희는
유죄
예방을
한시
담당하는
동작
기록하고
##들인
국민들이
##전문가
재학생
##활성
도입해
방탄소년
제어
착한
모터
중계
##상환
골프장
맥주
군의
##상에서
바꾸는
물이
##케이
##니는
자랑하는
살리기
재검토
블로그
##36
펼칠
##금리를
등산
들은
보궐선거
##티드
##됐을
고백
##협회는
아나
돕기
복수
자택
6명
태도를
분야를
농어촌
우려도
##사령
성범죄
이송
칭찬
##워드
##본부장
##벤처기업
대입
아파트를
활동이
산업혁명
체력
##석유
염두에
##도심
걸렸다
인재를
확립
들어서는
페이스북에
매립
이곳에서
3명이
단일화
##업체가
수요를
갤럭시S
인민
만이다
출제
##재료
판단을
모인
포트폴리오
밖으로
독려
학교에서
##기관인
쌍용
즐거운
하나금융
진영
비록
이뤄지고
신청할
작품은
##mm
미안
도박
손실을
지점
##무성
순차
소매
중소기업의
일제히
##었다는
급감
지수
못하면
푸른
거대한
아이들을
##위험
사람에게
##일의
유사한
테이블
붉은
할지
서버
무엇을
##이프
합의했다
##39
언론에
이들에게
##국제공항
처럼
##기한
기반의
구매할
솔직
##농구
##편이
##측의
합성
##사람
시속
굳이
최고경영자
안고
사이의
##지요
한꺼
##해달라
##캐피탈
개시
발송
##저축은행
이슬람
SW
##케미칼
소속사
방지를
자국
충청권
김주
꼬집었다
St
차이를
찍은
추출
체류
김장
유포
##여대
##되지만
G20
##광고
일괄
소통을
8강
##주지
기술과
10만원
##HO
배경으로
소비자들이
##과제
아카데미
한꺼번에
이념
가입자
대행
06
3루
분양가
##치면
##달러를
##해진다
유럽연합
신약
##익을
수산
가족의
비트코
손해배상
##37
선거에
않았다는
##물류
양평
2009
바르
발표된
위성
##고등학교
##로지
##도시로
##렸지만
논란에
동결
##미애
순이익
##ow
즐겨
본인의
수습
공격을
선착순
법제
이것이
전일
##없다
소장은
##우주
최우선
발을
배후
12시
핸드
기업들은
다양하게
만하다
이론
이어진다
거리를
다르게
##스바
##블릿
##채를
메가
영세
60대
##민주연합
점심
공간이
발생하지
국악
후쿠
3점
논의했다
번도
크루즈
문제다
분석을
원료
박찬
갔다
##쾌한
하위
장악
경제를
가이드라인
4위
위촉
의원도
다중
##하되
견제
감수
이어갈
고객들이
불참
그날
지급하는
##처는
UN
환자는
과장
늘리는
##저우
4회
##이게
수령
고마
대책이
순이었다
종사자
내놓고
##곡을
##피를
다니는
일요일
##id
##기소
비율을
##형의
일명
신성장
##영화제
##미사일
3월부터
잇달아
상정
코치
역을
론칭
##직자
##남부
##조가
계속해서
과감
추세다
##된다고
확대하는
크기
사용하고
쿠폰
물었다
in
하거나
고려한
원칙을
##광역시
거래가
##공동체
규정하고
소홀
신발
##법원
##달러로
##둘러
##창출
유성
제5
##까지도
해설
승부를
올라가
앱을
5개월
84㎡
서비스가
여가
점수
것인
변이
개발하고
본부장은
방영
##케스트라
업계의
##자격
추구하는
대구의
신고를
##만㎡
##키스탄
가파
##나와
한전
##요타
##중립
방식의
확실히
손상
16강
##현실
기술개발
불필
내놓았다
잉글
지배구조
직권
박상
유의
오해
일도
전환을
##동과
캠페인을
##라의
##us
의미한다
원가
과잉
800
현대차는
##부족
폭넓
업무협약
방송된다
##자금을
의정
불펜
##면의
논술
##취업
관계없이
플랫폼을
JT
플로
이끌고
지속가능한
그저
발령
대응할
##클래
장수
급속
추격
KAI
쾌적한
지속될
태어난
임대료
도달
##로서는
통증
##로서의
선수들은
선거구
##문화예술
영장
##영향
무사
우리은행
##쪽에
##만원에
소식이
##표준
몸이
나중에
전력을
보험료
설립된
들어오
협조를
수색
OLED
##태프
자가격리
선택한
##산업을
달성했다
##관계가
술을
주관하는
1000만
문경
경향
##m²
밀접
박람회
##의회는
놓은
이듬
##조한
이하로
두루
##센터와
확보에
요구에
폭로
시민들에게
##업체의
##청에서
새정치민주연합
##경기를
비싸
##달라는
확대에
7천
##2명
군포
##셀러
##전기
##스리그
선택을
부의
##제작
권한을
##산단
300여
아시아나항공
##49
유니폼
원활한
수사가
높아진
침묵
상당수
##언론
피아노
질병관리
정책의
고양시
선거에서
쿠팡
1주일
당기
##자유구역
##토리
세계에
애로
##줄이
나간
##ir
인명
열려
##었다고
##3천
신용등급
##시장과
##통제
개선에
결정에
수송
내보
##실점
##EA
해킹
늘리고
밴드
당당
선관
재차
##행사를
화제가
준비한
재미를
총선에서
신생
##일랜드
발병
에도
과징
듣는
이듬해
기술력을
인스타
특별법
김천
시티
##단위
##기간을
바꿨
##언스
희망하는
##사업자
##제조
농구
연준
모금
허가를
미드
폭으로
500만
한다면
##op
##관왕
##데스
결심
한겨레
대부
##GA
프로그램에
어쩌
##채권
애니메이션
인식을
안정을
양자
젊은이
회장과
1학년
돼지
최경
유인
이끈
시ㆍ
##님이
당했다
진단했다
동화
LCD
##종이
문화가
##안군
지은
분열
이어가
350
행동을
##석에
이해할
##우리
일에
태블릿
경신
수상한
##기관과
파악됐다
##훈은
##업계의
연루
상실
of
살아남
##경찰서는
깨끗한
씨와
공주
역할이
제치고
치킨
번역
가평
조짐
자신들의
##호한
법을
열악한
농식품
##홈쇼핑
각자
바꾼
가산
척추
힘쓰
이원
##출산
김형
올릴
13개
정시
전염
기대가
##토지
커플
지역이
장병
##스토랑
그림을
장기간
##8명
깔끔
개성공단
##IT
##께서
유지하는
##속에
늘면서
보이며
공론
##현이
##들여
항소심
안전사고
##강화
미치지
##감으로
언급한
불어넣
바라보는
##시각
올레
기기
기금
응모
거절
앞으로는
음원
오지
났다
##교를
##시킨다
강사
일으키
구축하고
##해운
프로그램으로
이젠
소집
출장
유동성
사고로
연상
지혜
##이면서
제출했다
아들이
소비자의
국토교통부
포괄
도의
##자연
공매
##유가
미친
##ce
20분
##교수
고민을
갖는다
안전성
취지로
##들고
무효
사실은
짓는
김희
대학교
지키고
50만
미분양
의지
알렸다
박진
##1명
혜택이
##였으며
달간
5조
학생의
##식에는
##행위를
##걸음
##판이
과제를
##미디
벌이는
##프레
대상에
기대감이
삼성전자의
환경에
수의
##과도
총력을
팔아
내릴
##데다
말부터
활력을
도입한
##기관에
감성
일반적으로
빌딩
잃어
##3명
인식이
##축구연맹
##수당
거리가
성공을
영화는
박사는
개소
정부에서
성명
##미술관
vs
작품이
군수는
실습
끝으로
발견된
##바닥
겨냥한
##나게
피로
##상공회의
가축
자리잡
상태가
30일까지
워크숍
프리미어
민주통합당
시작하는
##담보대출
유독
교과서
반발하고
아세
노력할
나름
주변의
효율적인
##네요
대체로
무력
##지부
쓰지
##과정을
빛을
월세
##지니어링
##학적
##인도
불을
1억원
지불
겨우
대가
보낼
않으
잡는
서비스는
##셔츠
때문으로
세상에
DM
보여줬다
선대
바꿀
병역
##자들과
##릭스
제작한
금감원
##과를
업무협약을
고문
##가루
##화재
예방접종
꾸려
성남시
##층에
손쉽게
판교
자금이
7월부터
인프라를
외모
##되던
증상
유상
14개
정도를
##었으나
현장의
관리가
##색이
대륙
전반적인
근대
됐고
금융권
벤츠
출시된
집행유예
##개정
배가
##오롱
##95
카드를
청탁
옆에
SC
모래
비결
바둑
170
정확하게
적용할
처분을
상처를
서울과
선정돼
KCC
음식점
##유럽
득표
서울시가
복잡한
코로나19가
할아버
추미애
##ter
기다리고
스타일링
카카오톡
이번엔
조직을
##지사는
실시하는
도교육청
맺은
폭이
##내지
자매
세우고
헌신
공약을
##부부
태평양
침몰
했을
백악관
꾸며
작업이
묻자
AS
PO
우리나라는
종합적으로
조속히
인문학
신청한
증여
##6명
신차
없던
##잖아
근본적인
##회장은
높다는
##어린이
##공간을
텔레
토론회
##어질
배터
답변을
증설
소재를
헌법재판
##스레
실증
레이스
##자고
창단
밖에도
##품이
결정한
연구소
눈물
자라
생기는
미스터
실시해
##시간이
##용이
이인
##폐기
중이며
있나
임대주택
입력
단위로
증액
고무
걸맞
##지역을
개발과
강정
##겨진
##ch
달라진
##스타일
나면
진지
청산
청취
무엇이
멋진
트랙
들어간다
1만원
##조는
##거리가
이라크
일으킨
##역으로
불이
물건을
활약을
우한
기관이
##유로
##동력
##욕을
선수를
탐방
##이노베이션
##수한
밝은
##비전
비전을
##디움
##교실
1박
광산
치고
성매매
##기업을
##우의
##음식
##업계는
700
테슬
국책
여론이
웃었다
2부
어쩔
지원하기
아메
##했는지
눈앞
지원과
한방
영국의
##구매
컨트롤
편의를
##우지
##청사
##74
불편한
##체는
##역은
그들이
죄송
후에는
나서야
국회가
수록
시작할
##구간
##공을
##면이
##만족
대유
불리
##ity
봉쇄
서양
느낌이
##역과
이색
화가
##사정
채널을
국토해양
병원에
##환은
2030년
붙여
공군
##해준다
유산
##두로
청와대가
30만
벌어졌다
매니저
사항을
울산시
##인프라
풍경
플레이오프
장려
사외
움직임이
훌륭한
##화했다
전락
##일리
고전
감당
##기업으로
봐도
고생
##38
아이스
밝히고
복구
정권의
##풍을
물량을
인스타그램
금융투자
방역수
승용차
부추
웹툰
중시
감정을
걸친
감독을
##코스
울릉
까다
빨간
##사실
다리
가능하도록
주무
나라를
남성이
미국을
##이야
구성원
관점에서
##학대
JTBC
안전관리
챔피언십
사례는
그렇다고
##즈의
살아가는
##수기
든든
##대병원
0으로
학생을
가벼운
학업
랭킹
탄탄한
치명
사망자
위원장의
##병원은
##수출
조성해
##가입
##퇴근
각국
등록금
사람과
돌아왔다
이르기까지
박정희
수출이
히트
스파
##7명
##테일
핵실험
흑자
골을
직접적인
팀은
프로세
경제성장
200만
맛이
적어도
금리가
정세균
기능성
사교육
위험을
##어지는
##예정
태어나
근절
레스토랑
안정적
위치해
느끼고
페이
프라
확인된
임용
신한은행
##정부의
##계와
그에게
환경이
300만
##32
3번
수목
예선
##째를
##돌이
##의로
##렉스
관해
마감했다
##제도를
모듈
##득점
위상을
사업과
##어졌다
1사
선보이고
영유
##름을
장학금
##항만
프로모션
US
추신
다저
대표적이다
속초
피부를
##중개
중에서도
장마
위주의
떨어질
##하기가
중학생
##조달
공급이
흡연
감사를
실시할
서식
##시설과
너무나
1995년
동계올림픽
원인으로
##독교
일방적으로
##담을
육상
몽골
버티
디젤
원자재
포토
정통
고객들의
##그래
충주
##세와
2030
##안과
저감
##스바겐
초대형
간단
##리포니아
필요할
일상생활
이화
1∼
하나는
바른미래
##됐으나
##대구
뚜렷한
타율
책임이
영업을
장치
##종은
각광
65세
정동
양질의
신기술
대피
##공천
성적이
소액
발표를
##지침
##분께
이경
부지에
한계를
정보가
의견도
20개
그녀는
나타나는
7명
##우드
공존
몇몇
효과적으로
받았고
손잡고
그들은
적용된다
아기
장면을
지자체가
드러난
막는
##렉션
1990년대
##증권은
전문가들의
오브
##홍보
하겠다는
##정상회담
못하게
휴게
금액을
대학에
보여줄
##절차
##빌딩
업체들이
입장에서는
덕분
석유화학
3㎡
공백
##64
2위를
##기간이
##ur
법안을
목소리도
##경기에
홈페이지에
강진
심상
##해요
부근
방과
법령
##장에게
빠져나
손가락
유학
##업소
잉글랜드
공급을
##사도
8천
걸릴
콜라
유학생
발열
##사법
##조치를
예년
기술로
나누는
##교과
작업에
##거리는
재원
##처가
부가가
문제도
이순
중진
##북부
음반
주장이다
군수
방송에서
설립한
코오롱
영화의
기대할
지키기
국적
해명
상품은
동아리
선고했다
만만치
움직임을
조종
토로했다
막고
있었는데
골라
난다
높아질
부드러운
마켓
김준
##문에서
논의할
형식으로
##이한
패러다
##일으
스포
MV
정서
이끌었다
##능력을
아픈
집합
##인식
##온은
##일간
##000만원을
가능성에
크리스마스
##텍스
나라의
영원
평범한
밝혀졌다
3가지
##4천
감사의
주택을
집안
전신
결정이
브리핑에서
사용을
불교
없으면
제안한
##현의
나주
편리하게
확인해
##500
경제에
##히지
최선의
##중계
만화
규탄
벤치
이석
2대
##연수
##훼손
메디
삼성S
##감치
방식이
미용
교육의
##광장
감동을
내년에는
##엔터테인먼트
##였다는
기울여
타입
국무총
최장
끊이지
식약
프라이
##생물
이의
##소통
##조로
푸드
##유지
병원을
하니
현수
전송
삼척
전설
활동하고
##되어야
벗어
적었다
##중학교
계획이라고
##네스코
##양이
UA
캘리포니아
##ag
나눴
도청
치른
채취
##찌감치
##홀딩
마라톤
##파가
가정의
결과다
##레이크
##엑스포
##대책을
제이
시리아
##톨릭
주한미
인터뷰를
유승민
##눈에
돕고
##운다
선보여
LI
##추어
##테랑
꼼꼼히
만의
시행하고
아이들은
가리
확신
덜어
국고
##적이었다
##날레
거대
장비를
##사진
2번
손으로
##리안
방송통신
고려할
수료
발견됐다
잡을
감독과
이윤
넘어선
보호를
공유하고
셋째
STX
경고했다
4명이
퇴근
주전
제공된다
열정
개발이
역설
축적
정규리그
양육
3시간
공부를
##부산
실장은
머무
박병
아쉽
면세점
##길에
강구
전체가
##지급
탄소중립
##역량
##테크노
##총회
시진
##작업을
##발의
예산은
##RI
##비디오
##훈련을
재킷
휩싸
##기부
최하
##지던
5회
외곽
일반적인
##이익을
내용으로
기간은
중점을
##례를
조기에
민관
##타르
##롭고
근무하는
탁월한
쉽고
기본적인
주민등록
주축
현황을
대권
장점이
##시설에
블록체인
##택트
불러일으
##황을
낮춰
영역을
4월부터
플라
참가해
차량이
기쁘다
##분권
졸업생
정부를
##방의
공화당
KB금융
강화에
수산물
고등학생
사회가
레저
주소
후에도
동성
##스런
##기업에
중독
회사에
좋을
##호와
쌍용차
않겠다는
##했어요
시진핑
일본에
##동원
제안을
메타
박용
초청해
보령
색다른
PB
##기만
간에
##저축
192
##밀하게
공소
유네스코
국토부는
등재
이재용
되며
참여한다
##사다
주민이
제조업체
타당성
효과적인
방안에
대회에
##사업과
동원해
바쁜
4년간
##터는
입맛
오고
조선일보
##견이
이뤘다
듯하다
심사위원
찍어
핀테크
나이가
수신
권리를
이곳은
항공사
삼성의
환자를
경기는
극심한
##비드
적시
재선
##특구
데려
아스
총장이
무서
스마트폰을
좋고
실수요
시작된다
##경의
##조작
나타날
##부진
##카드는
##글로벌
규명
언제나
##실의
##자재
학생과
한가
##했었다
반영된
성과가
폐업
네트워크를
##보지
교육청
시험을
##라가
분석도
그해
호흡을
구독
예상보다
관광객이
##솔루션
입체
목표는
##공화
##효과를
부사장은
선보이며
##공학과
공판
##저히
##∼20
##술을
업체의
##방해
인건비
세계의
눈높
대선후보
모빌리티
교장
만들겠다
##플레이션
목표다
진화
해외에서
꿈꾸는
##됐기
##분쯤
양보
대안을
국제사회
A씨의
##두는
현대백화점
영향력을
코미디
##79
4번
빈곤
베테랑
보이스
##정부가
반납
날이
동호
면에서
브랜드로
보건복지부
민감한
경기도는
마운드
##해져
다행히
이진
혹시
##드림
겪은
경기침
##았으며
하수
담겼다
대회는
병원에서
이후에는
강력히
구성된다
자격을
댄스
동향
육성을
##비서관
한도
원화
가격으로
포인트를
대치
##콘서트
심의를
행보를
##용지
건물을
대구시는
무상급식
게이
남양주
##스톱
##ID
한국거래
암호
확산되고
##tt
판정
##메시
안전하고
수익성
##RA
진도
##민주화
MS
##가구가
##에이
##페이스
못지않
저가
절차가
##았을
바람을
순차적으로
계획에
##에스
CP
영구
##투쟁
작성한
만들어야
불가능한
일간
##2000
##밀리
증가로
##지역은
동북아
여성은
무단
##6천
유재
악취
조건으로
진해
불출
내용이다
##두를
설명을
국민적
정치를
아르헨
##여름
했으며
손꼽
챌린
##팅을
상의
제공하기
##질랜드
##개편
약간
EBS
개정을
조현
일찌감치
장관을
똑같은
##스토어
연면적
단원
##책이
요인으로
기지
##플랫폼
국외
행안
##임이
선정한
##님의
##대책본부
예정돼
판단해
##퍼니
마이너스
휘발
추진에
워터
정상회의
이렇다
선언한
고사
헤드
정상적인
##차의
##모터
처음부터
약물
조별
학교폭력
리조트
늘리
역사의
##미한
기준에
##희망
수분
새누리당은
무대에서
이강
반전
도시계획
##노동조합
겁니다
확정된
다를
제기된
위험한
한국형
건축물
04
과제로
신입생
펼친다
고부가
증정한다
미래의
##기업인
탈퇴
##노트
아이의
경인
한국어
공연이
아시안게임
박수
##타수
등장하는
피할
하드
##즈가
당기순
준비해
##났고
##ea
여부가
시스템이
편안한
##전망
오산
부르는
금액은
아이들에게
시청자들의
자외
간단한
자리가
##um
3인
##막이
사육
4배
시점에
후보에
홈페이지에서
운영된다
그러다
연체
##ha
신선한
##퍼런스
토트
##냐는
얘기가
스펙
##지노
##예요
폴리
3분
집회를
전반적으로
##장학
저작
이후에
등장했다
파는
극장
500여
##카드를
주택담보대출
줄을
4인
패스트
진심으로
학교가
##89
증대
당국이
##주자
선물을
##라리
일회
##발생
##프는
인삼
##쿼터
재판을
작용할
성능을
##시절
불필요한
최대의
한쪽
온도
땅을
가요
go
더했다
이게
헬스케어
##내야
자녀를
곳도
입지를
의원들의
##혜택
집으로
소개한다
대국민
남다른
아랍
노벨
설치하고
공청
##난을
우려했다
전년보다
당황
환승
기관은
많았고
##방식
8명
사적
##69
양식
##영을
나지
하도급
상권
매출액은
최소한의
105
초부터
않았다고
##더스
정보기술
업체에
##기준을
비공개
행사에는
동대문
##민족
실감
알뜰
피부에
떠나는
##하듯
대응하기
평일
6억
백지
훌쩍
##시픽
진실을
##자책
사격
외국어
난민
넘는다
제도가
##호텔에서
한옥
##센터의
공연은
그것을
고지
##ul
##작으로
##했다면
이곳에
경향이
동탄
고대
박태
발레
이상은
정해진
지친
시대가
김종인
얻는
가까워
광고를
투자에
사면
전국에
한눈에
##드와
분야는
##점인
여신
BI
##청년
경쟁력이
걸림
종종
지원금
##크로
오래된
사용되는
시중은행
긍정적으로
##상품을
##이니
##원장
LPGA
자체적으로
생명을
##비즈
역사와
공조
해남
안으로
아르바
중산
한중
아웃도어
공제
포천
셀트리
확인하는
예산안
방문하는
탈당
넣고
경기도가
개선이
종로구
##학자
##미의
2000년대
아르헨티
추진한
보고서는
직원을
##하길
여부는
확대될
이창
시작되는
붙어
해피
민정
다짐했다
체결한
선거운동
확정했다
##차게
박재
일치
사건과
사라진
내각
높인
##3억원
움직이는
##보도
가족을
국가안보
##자에게는
차질이
작전
처리를
조사가
부상으로
위에서
##겁다
걷기
뉴질랜드
경제부
공동대표
이현
정책과
CD
##사원
##감시
늦게
완벽하게
지방세
##도서
과감한
##투를
중대한
출퇴근
##사스
40년
필요성이
시군
##시다
타자
양해
하루에
교황
성형
##인원
##극장
or
어떨
##졌기
쇄신
##소연
##대체
##4명
한국은행
현대건설
##청정
늘릴
작가가
지니
##한을
물에
규제가
##문제를
여야가
##양성
관련해서는
대대적인
봉사활동을
받으면
표명
중형
완성차
우회
재편
봉사활동
112
##변을
대덕
##리츠
##마의
6만
외신
설치를
아무도
구로
현상을
##크라
노트북
나눈
신경을
해주는
##욕장
결정하는
찬반
해지
몰입
부가
상무는
사무처
##르다
메모리
이산화
##회의실에서
떨어뜨
목소리
설문조사
the
혁신적인
작품이다
괴롭
미루
마케팅을
일정이
가볍게
사용하지
배럴
##시행
등장한
신속히
##보전
불량
총력
상습
##nd
스타일을
주춤
고객들에게
절차에
2020년까지
1996년
자유무역
어두
나라가
CI
요인이
실리콘
자신에게
속도로
개발했다
처음에는
대다수
가계부채
##효과가
아리
걸었다
블룸
수익률을
명확히
지난해에
##전당
발굴해
서울중앙지법
5위
##림이
되살
##문화재단
##캠퍼스
심어
교육부는
준비가
무렵
일일이
지원했다
규칙
기울이고
##셔서
그것은
갤러리
로켓
조성하는
##8천
휴대전
처한
##산업이
##위원회와
##체육회
효율적으로
검토해
건설을
차트
재임
연예인
펼치는
##7천
##란을
서초구
동의를
들어온
위장
##기관으로
##이라며
일부는
출연한
##운을
공직선거
중재
오늘날
대의
##과세
##호에
선점
##im
##HD
권익
복용
주체
##협동조합
로비
부산시는
##키퍼
익숙
검토할
식사를
SK이노베이션
##외과
강의를
시민들은
SK텔레콤은
##구성
구는
역사상
##산업은
터치
소중
그야말로
악성
##명대
부산에서
대박
대학이
유감
##자리에
CNN
##단지를
여주
구멍
대도시
내리는
##회원
##선수권대회
제2차
1승
##비서
국회를
랜드
피해자가
대목이다
서둘러
##었어요
##여건
##중소
느낀다
1개월
베를
클러스터
##68
건수는
##억여
판로
아나운
번의
이광
박스
읽고
날을
구조조
포스터
주장에
반해
창출을
아닐까
체험할
##원자
##청구
##버리
강조하고
에너지를
번에
본질
고추
##할까
글이
성동
유지했다
인디
협의해
저축
전경
찾는다
##년의
대비한
##100
잦은
뮤직비디오
1순위
해석된다
사직
##교육지원
토트넘
전보다
판매량
##일반
회복을
거리에
시골
근거가
우리에게
##데믹
독립운동
마련에
체중
기본계획
연평
나빠
##준은
양적
가라
제보
광장
##너스
북한을
##으려
##78
우편
새만
민감
박인
정몽
완주
전문가들이
LS
결과로
##비한
총리의
통합진보
보류
전망도
부러
나뉘
비닐
파급
##렸다는
재택
임상시험
##찰을
주민자치
보건소
남북관계
호기
##스틱
클린턴
CBS
##풍이
과태료
##BA
##48
##업체에
시민과
##중앙회
넘었다
##모비스
##스러워
개정안은
있었다는
받았던
##화장
지시했다
소위
스코
언니
전망을
도지사
들어와
##ttp
연중
##학부
소나무
터져
##양은
프로듀
5만원
형평
##농가
보람
고흥
위치를
쏠리고
위대한
됐다고
삼고
출시를
준우
##양의
필요로
거짓말
재계
년간
법원이
단계적으로
영농
학력
The
핵심은
생각에
사모펀드
DNA
장기화
좀처럼
http
결성
체계적으로
시원한
##59
##페스티벌
정진
인정받아
벌어지는
##변호
업데
보금
한복
차원
업계에서는
많다는
우유
##움과
그룹의
시위를
시일
전성
6회
##기에는
스킨
마사
##총생산
마련해야
공모전
김명
GS칼
짓고
한국토지
##프로골프
부당한
1조원
터널
보냈
과다
개발하는
##다란
##셀로나
핵무
준비에
우호
교도
이루고
고객은
당신
팽팽
진출한
##졌을
세력
줄줄이
##해왔
##살이
응용
철수
권영
날짜
겪었다
원고
가뭄
자이
신도
살피
키우
##임대주택
프로그램이다
좋았다
##면허
황교
##oc
달에
##점유
어울리는
##하에
##행동
비디오
산학협력
처방
지역과
##결과를
증폭
싶다는
질을
위헌
불과한
전산
##등을
해왔다
자영업자
##부르크
제기된다
명목으로
지경
형제
어릴
전략이다
김은
##오일
01
대유행
이통
##원전
역동
##ob
경찰관
##로워
##종목
##청을
기술은
할리
##하시
1년에
기관의
시계
체제를
##군수
요구가
##지사가
가득한
소지
18개
정리해
인사가
예상하고
정년
최첨단
생산을
중소벤처기업
500만원
달콤
##조사에
분이
##변경
##면세
아파트는
##정보통신
라면
##터가
집중할
소아
대림
##시간에
##벌이
대통령에
많을
##어의
법원은
키우고
##추천
장기적으로
고민이
분석하고
##리라
티셔츠
캐릭터를
문체
범행을
있었다고
##십자
국감
##자치단체
##대우
사망한
참모
미드필
재보
인성
휴양
주목할
##났지만
고위험
동아시아
과반
언론의
핑크
캐스팅
지도자
대상자
위기가
학교는
3㎡당
어렵고
##수영
##est
브로
##저가
현대모비스
판사
부사장
성장세를
##패션
발언은
기탁
##으로서의
무엇인지
업계는
고맙
골키퍼
##가구로
##보고서
명분
1994년
가칭
오케스트라
업무에
##코올
부자
##1억원
선수들을
금융기관
브랜드의
불만이
들어설
살균
편하게
키즈
학교의
##고사
##가구를
예고했다
비극
예정이라고
김제
됐다는
트럭
##택시
경험과
하는지
추첨을
DJ
##76
의학
정도는
1500
비치
##본을
##엔날레
한동안
반려동물
점검하고
##저널
중심에
잡지
시내버스
##가게
요청한
취약한
만나볼
관련이
국도
두번째
##곳으로
분석됐다
##밴드
##ap
##동기
시설이
혼합
장관과
대우조선해양
##행복
정하고
경제협력
경제성
골자로
해당한다
자격증
내세워
광범위
홈쇼핑
이뤄져야
회피
산재
##5일
절약
어업
성희
생겼
강렬한
누구보다
인용해
##석에서
거창
차례로
고집
##개에
기장
병원으로
MVP
적도
산업을
상품권
##심과
지내
넓혀
저도
##상도
화순
##마일
##포스
스타벅
협업을
안드로
##하늘
##응답
상품으로
구청장
드물
걸음
##리조트
위원회
시그
형식
돌아오
회전
##지휘
##조례
##2억원
부상을
발표하고
##art
펼친
연이어
특별히
2분
줄기
용의
성균
함양
엑스포
넷플
환경에서
배우는
남아공
정상에
않으면서
자식
홈런을
유치에
구제역
교사는
##평가를
노란
강조하는
과열
지붕
8개월
##그린
강북
관료
예매
##외교
조성에
##배출
##7억원
말았다
##루미
노동조합
바깥
합산
장점을
빚을
노르
내신
그러자
발족
##슨은
서산
자신만의
##터널
유기농
정신적
통일부
사업도
시간과
확산에
넣은
주저
1루
B씨는
아버지가
50년
설립을
성장률
환급
대부분은
WHO
##유공
세련된
편리한
개원
불만
관악
스프링
노선을
의사가
도시의
선수의
직원들은
줄고
2로
##다이
촉구하는
식량
##연습
케어
##토토
##해서는
해소를
졸업한
여성을
##리나
사정이
보도에
각자의
##매출
읽는
지급한다
##치다
상세
금요일
성희롱
스윙
행정부
소리가
이집
마련하는
##으론
삼성이
퇴출
정면
잠수
하도록
블룸버그
##점도
걸그룹
기여한
국정감
##치와
이해하고
명단
사용이
매뉴얼
##바꿈
처벌을
할까
실물
투표를
걸리는
누구도
세일
증진
배분
동반성장
##신탁
전달하는
노원
효능
효과는
##해줄
##5천
화장실
하동
재산을
홍삼
집중하고
##프를
##베이터
불가능하다
##베이스
염려
대법관
성장했다
##해수
##폭을
1990년
CG
크다는
추정되는
시장과
부산지역
침수
##기인
지도부
낮다
피의자
##주면
충북도
급증했다
수년
불합
##여명의
안팎의
##일인
막걸
##석과
최고치를
이보다
##섬유
이틀간
떠났다
유명하다
##만5000
동아일보
변화와
다큐멘
사건으로
##사카
##내셔널
PGA
뛰었다
##절차를
##혈압
101
##2일
전문성을
##ive
특화된
18세
저지른
공정위
김무성
녹음
##신저
보자
##머리
스틸
전사
대응에
현실적으로
대표로
일본과
제도다
##체육관에서
지적을
원산
아세안
##타자
맞붙
한의
##소비자
시와
##러블
연구원
경희
배우고
1부
1등급
대주주
떠올랐다
야당의
돌입했다
##시설의
##특위
않기로
오름
##규칙
살짝
바뀌었다
상태에
나오면
부총리는
노동당
내놓을
조형
##기간은
투자자들이
진흥
복무
진행되며
로드맵
까닭
명에
협상이
계획은
투자할
불투명
분야별
원인은
##들에게도
토종
오세훈
않다고
경기장
탈바꿈
##레저
공유하는
부임
대학원
##나가는
표결
부드
##세서
조류
연구팀은
##랭킹
요청을
파생
##공사의
개최를
지자체의
##표가
소각
속출
힘들어
공직자
대변인
##리자
여지가
치아
아모
이룰
고장
적자를
달러를
기본적으로
금연
300만원
띈다
사례로
모집한다
몰랐
조경
##하세요
##MS
확산으로
##코드
대학을
경우에도
##예금
국경
커진
##OS
##격이
얼음
##ab
##상가
##만t
내용에
법인세
학대
지난해까지
표현을
후보자가
도입했다
창조경제
배제할
나흘
몰래
일자리가
부드럽
눈빛
외출
##회사의
포상
리서치
IPO
합의한
1군
왕복
한국지
답을
온갖
불거진
직원은
도시로
##하기를
권장
되기를
점검을
상반기에
교육이
후보자의
나쁘
##크를
그쳤
##전선
철저하게
보태
돌파했다
매장에서
정선
위하여
세븐
청주시
끝나는
업체인
##주며
지식경제
##회관에서
도요타
##정도
##협회가
평화의
유럽의
없으며
4층
물건
합계
##맞춤
사태에
읽어
360
타결
##교육감
바꿨다
##종으로
부족해
업체를
의무화
로이터
자발적으로
속으로
되풀이
##이도
합리적
살기
추억을
코로나19에
장면이
서울에
같아요
온천
의미로
9월부터
##리바
제도적
증상을
##끄럽
신천지
직격
나가고
던진
옛날
##통이
내실
소외계층
오르고
항암
##함은
도시철도
출품
##거든
##조리
팬데믹
##무개
올시즌
협력사
연쇄
##RT
장거리
메시지
##버스터
촬영을
최고위원은
재학
클리
##위생
배추
크림
##보유
기독교
##기간에
후유
줄곧
##식당
다음으로
대세
부지를
##거를
선제적으로
공급할
정부도
김창
활동하는
구성했다
드라이브
면허
갈라
이해를
기도
##민을
당국의
모른
고창
잡기
파산
적용된
##스트리트
강세를
조사하고
단백질
출범한
가방
##자리를
명확한
마르
모르고
##파를
텃밭
현실화
국세청
##루를
일본을
강호
##부상
익산
수출입
전체적으로
자릿
공방
인쇄
성균관
후임
가끔
출전해
고구
들어갔
접한
버락
현지에서
에서도
배울
##상인
컴백
무척
있으므로
##되는데
솔루션을
DMZ
시의원
꺾고
내게
##로봇
김학
급격한
임진
농림축산
포부를
간편하게
하나를
받았다고
저출산
우아
신청하면
교실
##원인
증가에
주도하는
FIFA
##잡이
개최하고
노력해
놀라운
군이
2024년
몰라
던졌다
합의가
지위를
법원에
##컨설팅
1980년대
##교육과
또다른
맺었다
9년
##고속
##버드
이번에도
발라
판매하고
##가격은
생중계
##버트
##우를
##공사를
인종
효과도
통과한
추가적인
구속영장을
가세
무리한
##부세
공개됐다
##지기도
게이트
##육성
수입차
명예훼손
##1일
커다란
미달
저질
##메이
시급한
공식적으로
##자나
북측
만전을
베를린
않는다면
앓고
법원의
퇴임
소모
2사
압축
##품으로
모양새다
일하고
##6억원
우리도
##시켜야
적용했다
NY
##촉진
##상이다
SA
재난지원금
일할
구입할
지지율이
전에는
제재를
산은
신화
##공모
트래
양의
##민과
멘토링
##대변
8회
넘은
파고
일반인
없어서
사물인터넷
던져
교통안전
보험사
죽은
화천
개최한
논리
인생을
##통신은
산출
##후보는
챔피언스리그
계승
체결했다고
교정
도보
번호
##os
권유
전두
끝나면
##호영
측면이
아동학대
공정위는
냉동
전동
같았다
맥락
##플라
텐데
##시오
양주
확보하는
연구위원은
부족하다
둘러싸고
12년
들어선다
놓인
##통은
소득이
자산운용
엄격한
##ov
교보
고기
어떨까
손해를
##초를
기록할
19대
태도
직결
##곳은
실질적
각오를
코로나19의
김윤
##중국
##병이
김문
타깃
총장의
##찬을
##보육
트렌드를
둔화
뉴욕타임
아쉬움을
가늠
묶어
문화의
##센트
##차례에
7회
곤란
휴식을
소개하는
연인
증인
내면
##손해
김한
존경
민간인
##랑이
활발하게
회사채
구형
##심리
해결하는
선수로
법사
오미
영하
늘어나면서
전과
털어놨다
사설
예술의
##일러
뭔가
가능하다는
최재
새만금
드리
자랑한다
은행의
##슬러
브라운
대상에서
박지원
채소
판매량이
악용
만료
실질적으로
노조가
사우디
칠곡
기준금리
공시가
키움
않는다고
조치로
있어도
과장은
##문화의
매일경제
진단을
남지
전셋
행정안전부
징계를
폭을
구역
조화를
각계
냉장고
9명
리콜
오가는
기대했다
시점에서
라임
부회장이
정권이
지고
무게를
9회
##총괄
합법
우려된다
##미로
황교안
제작해
베이스
폭탄
럭셔
##학력
정당한
##상황을
상을
카타르
주상
교육은
##일수록
신조
##아무개
롯데는
조사는
한두
농축
한국시리즈
인연을
강화했다
격차가
##에겐
행사로
직원의
미성
놓여
무장
안착
장기화로
##플루엔
실전
비용은
넘긴
##5명
고심
호평을
현대제철
영업이익이
##공사와
##PP
의성
학생들
작품으로
받으
##요양
불꽃
계속되고
써야
줄어드는
랜드마크
영주
관건
##록을
대상이다
일대에
##박물
자유로운
##나타
성장이
이용하면
##렸을
전문의
DB
그녀의
교수와
안드로이드
##체와
##선도
비난했다
이번주
100명
김정일
송영
중고차
##라운드에서
가상화폐
군에
제1회
서서히
띄는
##시설은
특집
이루는
파라
조성하고
협회
격상
등록을
릴레이
지사가
##었으면
난방
제시하고
내세운
##문과
납입
밀어붙
단지는
계층
급변
보성
##심판
흐르는
##밖에도
영토
확진자의
쪽은
국내총생산
##반도체
신작
한참
##르몬
##맞이
##포스트
버튼
##업이
확대와
제천
구성을
##위안
중지
실패했다
##관절
##철을
##생의
인정하고
배임
##3억
##주택공사
제공한
##까지의
야당이
공격수
납득
김일
인텔
##졌으며
##음료
당연한
스카이
버려
열리고
통합당
6조
정교
상승을
##방법
경쟁률을
강성
비춰
원안
혁명
##단체장
UAE
긴밀한
토론을
경과
##9천
##업은
##음에
자꾸
기자는
교직원
##마이
리버
생각은
파트너십
고성능
문화적
남을
##증후
등극
궁금증을
##000만달러
협동조합
된다면
걱정이
##교섭
##포지
달할
##놓을
마음의
##하고도
교차
PE
맛과
국제적
##감염증
##권으로
방학
맡는다
신곡
실어
대지
월평균
##롭다
가덕
신상
##리조
##프라이
도시를
특성에
##커머스
오른다
##국회
전제
박탈
450
의무를
##제네
김혜
부풀
##ess
##ew
전제로
추진된다
##르며
속의
포지
문화관광
엔터테인먼트
##마당
오리온
##프리카
##확산
배를
수돗
건네
피력
주된
폭락
서로의
자유를
광교
그걸
##테이션
전교조
##합을
국민과
##투수
5월부터
##비리
##스트로
전술
생각하면
밀착
슬픔
유방
있겠
##ct
끝났다
방식은
##상부
가입한
증가해
의대
표현했다
보금자리
50만원
총재
비수도
적용하는
되는데
상품이
나누고
볼넷
6월부터
귀가
영예
##크는
##책으로
맞물려
각국의
몰고
희귀
##회사인
1980년
대한민국을
고래
차별화
성장하는
배경을
주거환경
##지하
##강도
##타당성
3주
일어날
단장
##if
쇼트
1000만원
기록하는
적용되는
##프로젝
활발히
5명이
##그러
관계자들은
늦은
소식에
다툼
진상규
##용역
##베스트
사과를
잃고
감사원
아쉬운
만인
##경정
지키지
합창
건강에
##연도
두는
보도를
##과대학
계속될
맞다
지사의
판단에
##했으면
해를
경산
모은다
2승
##립니다
##목표
##값을
##어와
방문을
기저
##지정
##스틴
출발해
7만
주민들에게
군인
괴산
여건이
늘렸다
인사는
뛰는
투자유치
높을
##류에
##봉을
오일
계획하고
반문
운영되고
그치지
##리던
유력한
사례도
몰랐다
##였는데
##력도
##담한
판결이
부모가
송파구
스트레스를
220
씨에게
충당
아래로
##동맹
한국경제
기회로
셀트리온
수직
덴마크
좌절
##채용
대구에서
이전을
##만큼은
조속한
내용도
국방부는
취향
요건을
열차
접촉자
내기
##퍼시픽
상징하는
권위
설명하고
상용화
넘기
생각이다
아파트가
경영권
영등포
정책은
상해
정우
##태평양
모두에게
마이클
서울고
인천국제공항
생긴다
KAIST
결과적으로
##업계가
투자한
후쿠시마
치안
탄력을
제외하면
말씀을
커버
주파
생성
거다
부부가
##이었지만
##둥이
240
구호
우세
##보디아
성별
##방학
SOC
##비행
영천
오디션
모두를
대가로
표본
레이저
노숙
화이자
취지
확보하기
끝나고
미드필더
청문회
입었다
것인데
##진으로
통학
##엑스
##교육의
스태프
조성된
즐거움을
금강산
순매수
기득
용인시
##것도
##련의
##and
개인이
경우에
주당
11번
##해서도
이야기다
##만으로는
수수료를
기술의
##커스
##부장관
동남권
동메달
##선진
김씨
9천
계약이
kt
##내외
##면접
##언을
지방의
##해주고
중앙정부
오사카
##스케이
주장은
사업계획
자산을
깨달
차분
ML
유혹
배운
믿을
##매치
발전소
개정안이
거둘
03
##받게
심혈
##수행
금품
환불
평가에서
##돈을
##46
되돌아
홍보를
선택해
##라이프
2호
자세로
##경험
##스테이트
뜨거
강화하기
카지노
2명을
나눴다
중이던
가능하고
SNS를
여행객
한발
표현한
안을
##비용을
최후
고액
후반기
출전한
##인상
판단이
공기청정
화보
##널리스트
유나이
언급하며
민정수석
많은데
수익률이
정기적으로
말아야
##균형발전
균형을
##서에서
맞대결
스피드
서귀
##시설로
##LL
돋보이는
##동으로
달리는
TK
과거의
방송되는
##환을
위원장을
아버지의
##항에
무거운
##싸움
##조성
입양
헬스
주먹
총수
즐겁게
토끼
기본소득
##2억
개최되는
##콜릿
감사하다
아들을
마련돼
자세를
파기
1992년
캐주얼
미술관
##전도
연안
광주시는
택지
전작
최상의
##발이
이사는
사천
##완화
매력적인
바르셀로나
##DS
대구지역
조별리그
개념을
시크
##운이
이메일
정했다
서정
##예약
상임위
계곡
##00만달러
글로
##급적
발생한다
설치한
혐오
##문으로
극복하고
파손
명으로
강소
감염이
삼성물산
양해각
전당대회
전날보다
금융회사
사각지
다주택
톡톡히
세우
대명
##98
신기
##코리아는
성장한
실버
투자자들의
문턱
아직은
##노동자
처리할
##분과
산악
다자
D램
수감
개혁을
한라
##마토
휩쓸
캄보디아
모델이
보도자료를
카운
포용
송치
아르헨티나
##조명
벤처기업
위원은
수출을
순회
양쪽
##주교
모를
오스트
식의
TV를
넘지
이곳을
부부는
제압
유적
##충전
백제
있거나
올스타
비서실
##해준
참가자
혼란을
어찌
관계자들이
고혈압
계란
뜻하는
혐의가
환수
오면
활용하고
보충
정치권의
##로와
##환이
도시개발
좁은
##사회를
##타점
더민주
전주시
커지는
전하는
비준
서비스로
##공유
뜻으로
신용대출
극복을
오직
유보
##GM
##통일
은폐
볼거리
##가야
해병
고민하고
LG디스플레이
효율성을
##용량
드래
시기가
국가정보
##열을
##사회복지
알지
공격적인
##재단은
차관은
구급
아우디
##ip
##단속
##연설
불평등
노리는
되자
주도한
감사드린다
##과장
김세
넉넉
끌려
##플래
학계
경호
숨어
눈치
수단
근접
##어링
대선을
한데
##값은
내비쳤다
##석으로
판단하고
공립
진출에
브리핑을
##가격이
##9명
관광지
있기를
지나면
뒤에는
따돌
##분쟁
주장한
효성
서귀포
##였으나
착수했다
7개월
어긋
KBS2
##개소
받아들일
남짓
##71
이길
이해관계
##실점으로
뒤인
신영
월간
삶과
파크
상공
안돼
행복을
유세
##산물을
건설사
##테마
물려
화폐
유진
친구들과
생각하지
##에다
서비스도
신청했다
이철
##수리
농림축산식품
IBK
기적
변수
약한
##무용
광주의
미사
20명
##등한
반짝
달리고
비만
지적에
정재
폐렴
문의하면
공단
애국
문자메시
##어붙
##엔지니어링
위조
설치돼
달린
약속한
협의회
대조
08
##NC
우량
중등
체험을
##병원에서
동력
수행할
자세히
갑질
비공
##7억
##마저도
60여
상하
##경남
##공간으로
##m의
가계대출
소진
내장
탓이다
서브
오승
될까
알레
맑은
##수산물
교육에
폭스바겐
무작
##커피
##000억원으로
##공예
옥천
은메달
가처분
##작품
징수
##열에
넘나
한결
맛집
제임
눈으로
고령화
마침내
부탁드린다
배워
공천을
##되게
삼성전자와
##니를
WS
CF
아우르는
방북
세균
떠오른
민중
강화된
입구
개최된
##여고
##어스
##됐는데
##BM
서로를
기온이
차량의
트위터에
##에게서
화성시
마트
낡은
바로잡
태안
발전과
떨어지고
공무원이
출구
들어오는
제시하는
북한과
외화
미네
자아냈다
##강을
부문의
탈모
멈추
크레
##업체를
도가
천재
중심이
전략이
기피
월스트리트
벨기에
울진
제조사
##해지면서
지수는
115
주민과
메신저
3선
##반응
직영
잔여
이럴
지침을
우리금융
GTX
컬렉션
소비자에게
전년대비
공헌
저를
아픔을
캠퍼스
주사
강세
마포
일로
미지수
없다면
무분
유류
##동계올림픽
기다리는
드러낸
##중독
경영을
의원에
웃돌
찾아볼
박준
##이었으나
없습니다
시청자
태백
##마가
125
지었다
##공공
벌어지고
##신공항
##광주
용이
것일까
해가
모두의
기초생활
이며
교육감은
##청사에서
삶에
박경
##벽을
재도
데도
쓰이는
##독한
낭비
장미
남았다
##94
##야드
마련된다
도매
##무가
페이지
NA
해온
청장은
DS
부응
##시고
반발이
이뤄져
남기고
면모를
백두
바른미래당
평가하는
##DB
Ch
산업혁
맡게
##학술
정도였다
공개적으로
남는
취할
##조원을
알려지면서
대선에서
##언이
그레이
기분이
에피
라운드
음식물
시장점유
영덕
##구청장
##기록을
ELS
류현진은
가꾸
##지도록
##탱크
안겨
더구나
희망의
동문
수단으로
##공무
화해
견해
##진출
단독주택
국가를
뜻한다
##멘트
##친구
타당
감싸
하반기에
설치하는
##사관
설명회
##포트
조성할
한국토지주택공사
장시간
시행하는
##경제를
매칭
입주민
사무총장은
결집
##급을
##성적
판문
걷는
영암
총선을
바이올
객실
적폐
박씨는
공문을
넘겼다
영화가
열흘
실현을
##수학
키울
##오면서
의료기기
##MI
진행한다고
이어지면서
선수단
휘발유
문건
전달할
##념을
촉발
보답
소멸
다목적
당이
인물이다
리스트
개선과
국내에서는
##업체들이
독일의
조성사업
108
케이스
문서
한상
15일까지
##르면서
검사가
탐구
선택하는
##전략을
여왕
포스코는
1위로
##실천
빼고
낯선
교내
정주
##TT
##형에
달랐다
부족으로
##형과
강조한다
귀를
하기로
개그맨
5인
스캔
경찰과
실패한
숨졌다
주장도
헤지
##GC
날씨가
##이스트
주장한다
비로
##레나
##곡동
승격
됩니다
산다
유가증권
날카
권한대행
##기에서
##ers
메카
회원국
구자
끝날
##더라고
발언에
차량에
말하고
찾아야
성장하고
달라는
##선물
김원
낙관
라이트
##회사가
타이거
떠오르고
##들까지
##잖아요
##자이
##ㆍ중
부재
국장은
불안한
여론을
인정받았다
닥터
##그라
인사들이
고의
도마
양양
주최하고
상황에서도
반입
##연계
4시간
공사는
기자가
막내
##나요
##통계
사라졌다
삶이
##번홀
##공사에
컨디션
나타내는
오빠
이밖에도
검토를
안경
##태를
평생학습
5000만원
인제
##파워
일상을
나이에
##폰을
발목
의료진
베이비
초록
원스톱
##인천
1987년
선거가
##뉴딜
경관
이용이
##LPGA
경제정책
평화를
확대했다
방문했다
마무리했다
다이어트
전진
속한
웨딩
빠르고
역세권
등록된
중으로
특급
강력하게
차등
##자마자
부유
뒀다
일정으로
아무것도
서울은
조화
펼쳐지는
아모레
##침을
에버
나오면서
사죄
발언이
경부
이슈가
궁극
드린다
브랜드가
시가총액
1993년
용역을
영종
부총리
죽음을
제품과
샌드
행위가
##시키며
회생
##편에
사진이
##소개
여섯
텍사스
##경쟁력
##회사를
완도
지켜야
풍성한
사장의
균형발전
발맞
장소를
##은행과
##업의
KE
엄중
##놓았다
3기
든든한
##루미늄
보은
체제로
기다려
재가
않았을
##상한
##서야
여당이
느꼈다
##호흡
우리를
성분이
인원이
아프간
이시
결정은
반기
해변
하나하나
불린다
섰다
좌파
아마추어
스쿨
정경
하기도
홍수
##왔고
추진하겠다
거래소
##물가
대표이사는
숨은
길게
한국판
시행할
구축에
납치
##률도
열람
적극적
LPG
##기정
호수
베네
##돼지
##업자
##린다는
09
CS
정책으로
이해가
##og
공개할
신안
외무
평가는
발목을
##널티
파악해
##망에
녹지
향상에
191
상식
밝히지
자생
한명
이노
개교
##㎡에
수성구
참여가
늘어난다
보게
친화
일대에서
##습을
코로나바이러스감염증
휴가를
옵션
자사고
길은
당기순이익
재확인
2주간
딸을
녹아
##MO
##만5천
달렸다
##시트
성장에
10억원
그릇
미성년
무엇인가
회동
이장
멈춰
보상을
시카
대학은
총재는
근거를
어촌
##남기
미래통합당
이유에
불가피한
과정은
NH투자증권
일부가
전통적인
문화체육관광부
맛있는
독보
다루는
서비스에
내용과
송금
누군가
제철
시켜
전북도
이승엽
마음껏
취업을
일조
예의
쉽다
청와대와
##버렸다
##라이트
반발했다
라이벌
3곳
갤러
##허브
바꾸고
비영
교사가
##코노
##구장
불확실성이
심층
건전한
다르지
지킬
##하신
##고로
할인된
대기업의
만족도
프리미어리그
##격으로
##작물
소비가
##필드
##래도
##전남
무엇일까
적게
##와이
시공사
도착한
주인공은
비하
##00명
장기적인
시상식
악영
해경
평균자책
##끈한
영혼
3명의
행사에서
르노삼성
##윤리
수출은
1988년
이외에
민사
발굴하고
##색의
센트
부결
명백한
자치구
##박이
운반
두려워
동두
페널티
15일부터
물고
##인한
##라비아
삼성증권
2심
다양하다
SK는
면밀히
##배에
설치할
동월
상설
국민은
깨닫
##마는
신사
덕에
달고
##먹는
커뮤니케이션
분야로
##방문
1991년
많지만
조선시대
명의로
검정
##PL
인플레이션
##장이나
총회
결정적인
##들기
취업자
저금리
간소
프로그램도
##세이
##량과
제한하는
연구에
##커녕
부모의
우위를
##으려는
금감원은
팀에
단계에
25개
빛나는
바퀴
분주
딸이
##라인을
때의
##길은
##있고
로컬
시간도
받기도
선발한다
국가와
기후변
다하고
##투자가
재정적
마련이
인정했다
도망
전두환
얼굴이
월요일
마인
파격적인
가하고
나타난다
본연의
##군수는
밝힐
원작
윌리
판타
풍성
캐시
아이템을
우연히
이것은
투여
##챔피언
지냈다
40분
확보가
연락을
받으면서
2곳
7억
##위해
조립
김부
##국적
##강의
오랜만에
이건희
##중이
##유입
초콜릿
##앨범
IOC
조망
##배구
강수
언젠
팬들에게
##기관을
취지다
##퀘어
기대에
인물이
동영상을
새정치연합
일본인
지원한
선수들
지음
쌓여
헌혈
서울을
피하기
가결
##지출
매번
장이
6자
##지방경찰청
명단을
하얀
있는가
감자
##교육청이
열정을
유상증
대응해
적법
##터로
때와
업데이트
방송에
##3개
사령탑
들어올
장점이다
해결해야
소주
##시간은
##번째로
정준
##가인
##사업비
공간에서
##합병
재밌
##성장을
230
유니폼을
고충
10월부터
잔디
진압
결정된
감상할
낸다
아스트라
전한다
표기
민자
시키
400여
행진
때에는
축제를
가깝다
승강
##av
독재
##상품권
예상치
6대
도시락
##주거
금산
부를
입단
장학금을
성주
계파
남용
본부장
상황과
100억원
##부장은
줄였다
교육과학기술
CA
단연
##개입
양은
##고교
##촬영
##본부가
##행이
##가전
드러내
인천의
잠을
히어로
제작진은
경향신문
LG는
행위에
한국수
동해안
진술을
##일보는
나고
예보
지역발전
스승
결합한
##테스트
판사는
##방에서
##체스터
청와대에서
내리고
##베르
고용노동부
김남
꿈과
언택트
해소하기
관리할
동계
##리에서
삼성바이오
##해지
수비수
예비후보는
어우러진
30만원
적힌
포도
포스트시즌
바른정당
15분
요소를
원내대표가
##제네카
1의
증시가
##폐기물
변호인
부친
접수된
##거래소
믿는다
팬들이
사회에서
##팀에
콘서
원칙에
##장관은
단어
BN
여성들이
##쿠르
상품의
엄정
지속되고
확대되고
로스
##컨대
주연
변수가
업체들은
의혹과
##침해
보컬
개최해
##빨리
표를
이벤트도
##경원
독거
##동향
석사
것만
보도가
##타이
신고가
##6억
대성
##1억
남쪽
의외
##청원
SNS에
없는데
관리하고
심리적
지원은
##계획에
안산시
퍼포먼스
가죽
고유의
달라질
올리며
##겨운
##공약
당정
영화제
##43
투자의
원금
주어진다
##생명은
공간에
하다가
관객을
돌아와
##신한
타협
깎아
8만
중소기업이
아사
각별한
웨이
##권익
명령을
##따라
권력을
어렵다고
##컴퍼니
나머지는
알았다
돼지고
##th
받았지만
아일랜드
전례
##팀과
30개
예술가
일축
##소설
##심에
도로를
지능형
전복
##개념
바뀔
##투스
횡단
##T는
최정
정답
우울증
임대차
번씩
오리지
조치는
겨냥해
##역의
보훈
##명령을
치료가
##타는
사회관계
기아차는
안심하고
영산
##매체
##진구
남편이
농업기술
지켰다
남기
##42
##바라
##스마트
구축할
스마트시티
##티지
실수
##ine
##확보
도전하는
고3
건립을
찾아온
다운로드
##류의
프로축구
장흥
##과목
정권교
이바지
알리기
인원은
정상회담을
상승에
선순환
7대
##아카데미
##롯데
획기적으로
수행하는
판단한
##정부는
깨고
터미널
평화와
단속을
##체제를
완전한
205
매몰
개인적으로
더한
액세서
재미있는
오르며
##세력
##제공
##스럽고
잘라
무주택
부작용이
놀이터
AT
못하도록
##클리
##금리가
##지나
##진한
간담회에서
여배우
품질을
회고
대동
개개
인생의
명실
단장은
##제일제
푸틴
##기업은
지정해
되겠다
##67
마늘
##소리를
아스트라제네카
성공할
낮게
##거든요
선물세트
분명한
신청이
신진
당대표
상태였다
태어
##냐고
##8억원
트리플
공모를
졸업하고
일본군
만남을
담합
##보다도
중요하다고
소통하는
내륙
없지
##계에서
종업
##냈고
후퇴
정상적으로
##운송
지리산
##회사로
교류를
언제든
지켜보
AC
도입된
야당은
피해자의
버리고
강화와
차례에
취지의
##서부
성격이
위안화
언론은
용도
대학에서
쌓은
방류
##크림
음주운전
새누리당이
알루미늄
사례다
돌아갈
##집에
법안이
알바
##리더
포르투
당뇨병
대회가
##작전
돌며
##시스코
산업통상자원부
수용할
구사
일정한
##로스
자원을
##상공회의소
능동
태권도
##수수료
##미니
2호선
바디
체온
확고
후문
표출
21세기
자정
외국인이
방법이다
파란
벌써부터
##터카
그것도
확정됐다
연결해
가리지
나가야
느끼게
7조
##우와
경주시
사운드
아르바이트
NH농협
##폴리
미소
한국지엠
##심사를
재즈
21대
이름은
집필
무안
자산관리
잇따르고
올랐고
##수단
##대금
개선해
제고를
##총회를
##협력을
접어들
고부가가치
본래
럭셔리
소개하고
소통의
규정에
변화의
HD
챙긴
패밀리
그렇지만
이목을
신흥국
가톨릭
전경련
여성가족
개최하는
여성들의
표했다
일과
##년이
##전부터
청와대의
100억
반값
지나친
##들만
레인
군사적
도전을
보고서에
상품에
##구청장은
WSJ
농장
구성하고
집중되고
공예
가슴이
뽑는
선원
자녀가
비슷하다
입학사정
귀여
앞으로의
목에
각각의
카메라를
배수
사정
비난을
인천지역
시설물
서류를
주유소
지식을
반포
4000
미국으로
요즘은
전쟁을
주변에서
수요에
조치에
살린
낙하
인식하고
초선
안타까운
##법률
내로
수제
청년들이
주역
##연장
##AA
배구
증가세를
보건의료
발부
입문
생활체육
우크라
돈으로
명동
기억이
주최한
전기를
##단장
코레일
실적은
간절
흐름이
체결하고
##보라
격차를
##르지오
##위원장의
##할인
벚꽃
테마파크
크기의
주한미군
추가경정
사옥
##플루엔자
본회의에서
신의
고립
성수
가능하게
결혼을
남성은
예결
##안내
추징
오너
빚고
있겠지만
가입할
마이스
만났
두바이
##롭지
##습니까
##쇼핑몰
오렌
한국전력
##층은
가기
##당국
##하긴
낮았다
프레스
친이
튼튼
할리우드
온다
직원들에게
오리지널
위반한
##고시
2월부터
청량
금리는
##all
당해
엄마가
##량에
##학규
6월까지
디자인과
##훈이
##신청을
##구니
##63
견본
대장동
##희가
CJ제일제
##간접
공지
주총
##ang
명성을
오늘의
##지식
여학생
영유아
시한
질문에는
성취
자연스러운
수월
싱크
투명한
##단체가
거머
신산업
김유
지시를
KS
엑스
김인
하겠다고
##패스
##상거래
챌린지
##원자력
여부와
##정책에
모델은
임금을
심도
##네트
응답자의
슈팅
민속
##현황
해방
저해
##4억원
농업인
2기
##함께
시너지를
전념
아모레퍼시픽
폴란드
4분
쓰기
나뉜
##기업과
하반기부터
자동화
압도적인
##주차장
될지
##증상
안녕
부진한
무죄를
공감대를
공표
##대리
무궁
통증이
##희의
목사
목욕
양현
알릴
토양
##이나마
사임
##하천
전광
지정을
콘크
##으로만
소비자들에게
나들이
소니
구매한
선생의
정화
경제학
연임
맞을
거센
부통령
공공부문
아들의
##뿐이다
단체는
저탄소
##포지엄
언론이
환경오염
이득
##47
구축하는
탄압
친근
김씨가
동래
생각할
##공인
6명이
대표팀은
급증하고
부산대
##연구원이
부부의
인체
일각에선
사냥
만끽
유관기관
VIP
벗어나지
현안을
적발됐다
##요원
결산
고리
제주항공
브루
대부분을
돈은
##매장
##란시스코
##판으로
판매한
60세
단절
좌석
그런데도
##쓰레
초중
태스크
때만
위기의
양천
200만원
발표하는
청라
FDA
벌인다
수년간
##집이
사퇴를
준우승
주재로
모임을
알아야
파일
##왔지만
20만원
했습니다
ㄱ씨는
현안에
셀프
##정책과
폭발적인
##활용
##군으로
인력이
들어왔다
주자
삼성SDI
##만명이
주식형
몰린
계룡
하느냐
K팝
##소방서
##방울
자외선
3명을
익숙한
흑인
개선될
신문은
똑같이
끄는
리우
다이아
목적이
사진과
취임한
감성을
후손
과징금
##중을
차종
##실업
높아지는
최태
##는지를
아파트의
비트코인
##노선
열을
조성된다
야기
비영리
전체적인
싫어
피해는
자유무역협정
고려해야
저의
##6개
10배
##가면서
어두운
나눌
부른
##차와
##상적인
대를
그래픽
선거법
안았다
##번호를
##독립
##론은
전문가가
호텔에서
20일까지
우크라이나
조업
##당국이
BB
극중
##bp
취지를
김두
되새
크리에
##활성화
기구
김미
목동
넣었다
질주
자민
보이지만
##어업
##증명
달해
낙후
사랑과
민원이
환경부는
##igh
CU
할부
때문이었다
이날부터
##공장을
보고를
맨체스터
집값이
프로그램의
승리로
##세종
안전과
##오던
##네마
유선
광저우
##산동
정책위의
주어진
사료
조영
접근성이
##관리에
감추지
양승
신청은
빚어
도쿄올림픽
사회관계망
좋게
조례안
강화한다
##손해보험
차이는
기간보다
넘쳐
##의약품안전
질타
대구는
마포구
학기
##프가
시니어
사무총장
B2
##하자고
##카메라
##업체는
##선택
청소년들이
웅진
교수를
##브라
##포터
사용자가
##자원을
무난
기점으로
공약으로
##피싱
누락
최근까지
국민들에게
##묘한
경기지역
커지면서
금액이
앵커
지원하겠다
존재하는
고위공
지식재산
않느냐
##세상
##뱅킹
단단
거기
4명의
무제한
촬영한
1970년대
손학규
이후로
살아있는
박형
전형적인
성북
##예고
편지
국회는
뛰어넘는
두께
그러면
이익이
미주
##협의체
개를
##일드
있어서다
친일
자본시장
도대체
아버지는
CES
프레임
그들
이르렀다
순조
애널리스트
대두
감안할
인수를
드라이버
검찰총장
확인되지
##공립
화면을
계기를
역할에
참가하는
##협은
서강
운영하며
챙기
건강과
학사
사회적경제
##결승
3종
##진영
##증으로
##도미사일
##평론
##만대
가구가
성장과
대개
공룡
요구할
팀장
##오를
뜻이
타이틀곡
##시의회
##대상은
구매하는
칼럼
생일
만나고
에피소
위드
아이콘
직선
아이스크
이미지가
변화는
알코올
##증은
최영
하청
사실과
공개된다
다중이용
거둬
산업이
가급적
정도에
심야
부가가치
국가에
2022년까지
##니지
소셜네트워크
대원
멸종
금품을
돕는다
때문이라고
향토
모양의
원로
폭넓은
도의원
벌일
##여개
명은
개발사업
공감을
여건을
우체
활성화와
개선하고
이내로
이식
전매
선정하고
##점검을
않자
트레
지원금을
중국산
인원을
##로우
전년도
##구조를
##버스를
쟁점
컨벤션
자구
##지점
##연수원
28일까지
##스피
대응이
4단계
제한을
거두고
가구의
상당수가
대신해
인정하는
엔씨
##뮤지
사업비를
눈앞에
거쳐야
역사가
##솔린
김효
##배당
입는
지갑
##량으로
국가적
유대
악영향을
##위원장과
##통장
생태계를
화답
스피커
##가에서
넥슨
상수도
시를
특색
촉촉
##박람
맡겨
규정이
호흡기
본회의를
테슬라
8월부터
카테
빈번
##동부
올라온
무승
호전
쪽에
##처에
것임을
치르는
통장
사장을
참조
체질
기용
한국전쟁
주중
중남
공론화
부산을
##라며
아름답
##하러
##ard
진료를
##지수가
포스
##병원에
##비도
유로존
통합을
류현진
강조하며
그친
##휴양
부인했다
##여객
파악할
기량을
전시를
규모에
밥을
4가지
남미
법이
피겨
산업용
나갔다
대항
사용했다
심각하게
공채
여유가
추진하기로
국장
경기도의
퇴진
##파는
수준에서
부산항
##RS
##상선
조사결과
##하지도
윌리엄
조금이라도
막상
소문
##준의
소지가
##ell
만난다
##상수
소통과
생방송
##권에서
후보에게
##TC
방사능
우선적으로
힘으로
생생한
검찰개혁
주름
학교와
##전공
계획도
단양
흘러나
TO
짐작
파우
주인공이
금호타이어
##국악
##날을
날인
중에서는
표면
오락
선별진료
유일의
않겠
##여겨
공직선거법
##코는
##약한
바다를
브레이크
활짝
##건전
카리스
##프로그램을
장점
10일까지
2008
발생하면
줄어들고
예비타당성
시행된
놓치지
돌연
##1000
확대한다
경품
직속
##고리
표정
곤충
인정한
바이러스가
전략으로
보조금을
개학
##미안
식품의약품안전
때로는
도래
돌아가는
셔츠
##단에서
선택했다
대우건설
우려하는
중의
적잖
리듬
옵티
창녕
펀드는
##매입
인정받고
눈여겨
EC
##금액은
##화물
밝히는
은평
차이나
못했다는
부끄러
##량도
방과후
##호기
##년을
표방
1989년
살리는
다음주
맨유
정권을
선제적
##마블
##코로나
불가피하다
대출이
기자간담회에서
응답이
단골
지는
불복
서대문
머물렀다
자발적
창당
일어나는
무대로
##입찰
구름
##경기장에서
중요하지만
오로지
낮추는
##하진
이달부터
가격도
핵심인
제공했다
대통령도
##부도
모습에
없었고
치른다
##게이션
가라앉
위임
돌아오는
잘하는
순식
편지를
##73
전시는
간주
##하므로
189
##4억
청송
이세
##승인
시연
김도
펀드를
연구진은
135
기록했고
신혼부부
이집트
##ia
총파
##부양
분해
3억원
간호사
견본주택
##업체와
우수사례
SK하이닉
다들
와의
##4개
차지한다
임종
이관
##소송을
싶다면
상반
공급하고
접할
테니스
문화와
학급
기여하고
인센티브를
마비
##디에
감염된
달래
##시피
##가공
조언을
1명은
시급하다
등급을
박세
8억
줄인
출고
가로막
창의적
한국관광
270
담임
##여행을
기쁨을
해석이
##국립
##우수
##인데도
강서
한마디로
이대로
집어
호평
품고
유공
떨어진다
방지하기
##의료원
##항쟁
##씩을
전반을
##령이
멜로
요건
금정
##유출
##받기
정은
새끼
것이냐
목적을
10개월
찾아와
부장은
##전담
크로스
외국계
관측도
상승세가
##님을
TH
##더라고요
##ong
중화
##티아
주제를
##상금
등에게
시집
다큐멘터리
가족들이
지역에서는
델타
1곳
코트
친절
##대회에
제임스
대검찰
원장이
파운드
창의적인
통합진보당
##만히
용기
기가
##으로의
승차
하우스
분위기는
꼽혔다
주민들을
Tr
달성한
2025년까지
6차
취한
그다
삼성그룹
합의에
스트리
원도심
##활동이
##재와
공장에서
한껏
##로만
임무
설명한다
양대
중이라고
개최된다
바닥에
##불이
A씨를
중국어
가솔린
##41
삼성중공업
못했지만
전달하고
포르투갈
당직
승마
지지하는
인구는
고공
더는
빠질
신중한
쏟아졌다
어디에
최연
##방은
때문이라는
전세가
행위는
다뤄
##컨벤션
본보
살포
전자상거래
##력발전소
의문을
달라졌다
월성
##군에서
6자회담
미쳤다
상위권
인허가
불균형
##모가
분포
설치했다
고쳐
훈훈
이완
3일간
독창
드디어
5m
청도
달러로
시뮬
바람직하다
단말기
견디
##로선
금융감독원
##EX
작년에
조정을
한양대
남원
##으면서도
##강점
투자와
앞당겨
모비스
다리를
##리얼
##발로
##반대
##총회에서
차명
확률이
단호
PK
##공단은
시스템은
오스트리아
위례
BBC
감소로
박수를
9개월
치러진
쓴다
##지원금을
계속되는
3자
##론에
기능도
전분기
지난해와
아닌지
수위를
내부의
부천시
기업가
기숙사
단편
강민
기준은
기소됐다
단식
수납
이야기는
12월까지
베르
##이든
생산할
플랜트
살리
고용보험
##농단
지역별로
개발할
Re
이청
##만원이다
북쪽
솔직히
애플의
가져올
뜻깊
춤을
##서다
비비
개발도
차이로
##트릭
정책적
하나도
주력하고
1점
산지
인구의
##해결
##한의
심해
접경
상품이다
부른다
평년
##킴이
국민은행
마련하기
파이낸
##반의
2위에
못했고
손실이
##퍼드
운영이
워킹
BTS
##근로자
미션
조사해
최적화된
2차례
##군요
개발된
##단다
국가에서
양측
자격이
하락세를
콘셉트
종류의
그쳐
상표
##프란시스코
논란은
함께한
전문가를
수입이
상급
피트
##모금
##정책의
##장려
납세
##our
뚫고
막강
하버드
대법원은
편의성을
모욕
##검진
낚시
하이트
엘리베이터
말하며
제작된
마다
##칭을
##팀장
KLPGA
장사
##드레
##센터로
##중은
발로
웹사이트
적혀
10시부터
##추가
3으로
곤두
천천
##랜드는
거기에
모집에
109
찍었다
시립
발표한다
확대됐다
5차
##형사
대내외
##적이라는
상회
노르웨이
저렴하게
##201
손흥민
오류
남의
##가요
공매도
SK하이닉스
의식을
과학기술정보통신
기업체
제출하면
이력
19세
재생에너지
##8억
고위급
##이거나
묵묵
시비
발돋
생산성
비자
환매
뛰고
##구장에서
청년들의
종가
보물
자녀의
##86
##퇴직
사람들과
잃지
##상권
##레이터
삼성화재
시야
우리나라가
차입
차질을
B씨
수익이
각기
표지
우정
리튬
눈길
해외로
3위를
강서구
여야는
부문은
데이비드
건강하게
나만의
관계에
유병
평등
봤을
지원도
IPTV
개최한다고
##부서
사회관계망서비스
##항이
국영
##몬드
신고했다
개최할
연평도
차장
##스톤
##5억원
비하면
자신과
내몰
침체된
월스트리트저널
고졸
지자체와
식민
발의한
샌프란시스코
겹쳐
시신
창업을
가속화
증강
구간을
도주
##사와의
충실히
안전성을
싶지
남성의
대기오염
칠레
해법을
미혼
3000만원
원조
부적절한
예쁜
전면에
적다
민주당과
그늘
재래
생산한
##연패
불신
102
물러나
18일부터
##당했다
사망자는
옮긴
##내에
코드
20일부터
친구가
##즈니
모더
##유기
경북대
영재
주니어
타는
부품을
##에어
##면과
노조의
##학과를
중단을
토목
오늘은
##자로부터
원리
세계가
구두
그랑
내부에서
영도
대안으로
원에서
점유율을
갯벌
정체성을
해외에
반응은
##마킹
##pp
선택의
반영하는
주도권을
##대원
##동네
길어
##대회는
최고급
미만의
시행한다
기록이
측과
법무부는
다녔
가치는
순식간에
나경원
사우디아
도우
배럴당
주상복합
교역
광역시
상황으로
##있어
생리
담양
전체에
단계적
잇단
07
수석은
업체들의
가다
검증을
맡았던
편안하게
##티스
##3일
##산업에
원동
##아지
##팩트
태블릿PC
가사
힙합
배부
##비치
##적으로도
침입
독감
사단
##희정
판단할
계양
##디지털
작품에
메뉴를
등장해
##으니까
5번
키운
아이들과
부분이다
휴일
##가리
요청에
오토바이
파주시
26일부터
가명
암호화폐
강하다
위험에
##증진
한식
이선
선거인
MD
##파의
들지
##산업과
##발전소
아무래도
인터넷을
거듭나
보이스피싱
순위를
어머니가
아리랑
점령
업체와
##수산식품
4학년
로열
인천시는
기한
지방정부
##52
대응하는
가난한
##남용
##쳤고
산업에
화웨이
6학년
경험할
데뷔한
작곡가
사외이사
절반을
##하의
경연
사실에
해결에
국민건강
돌고
주변을
환산
##접촉
정관
거침
##현장에서
불이익을
있었기
##간을
발산
로스쿨
##런트
25일부터
##림은
18대
장소에서
전문가로
210
##습기
##ak
보이면서
급성
##영향평가
##치료를
##해볼
##즈와
특허를
정읍
##연구소는
지을
이만
현지시각
멤버십
330
증거를
공개하고
후회
##캠퍼
동남아시아
입주자
##미세
현실적인
스타벅스
3승
정직
달성을
부동
청양
##더블
주목하고
##소득세
뮤지션
평생교육
근로자의
5000만
의미하는
세단
##00원에
##코노미
##ee
식재
않나
인천경제
줘야
물량은
##지원사업
국정감사
지역화폐
15만
100m
김홍
지원으로
현대캐피탈
남측
거래일
완료했다
구경
10조
업무상
##집에서
인형
의원에게
##협의회는
Pro
##축을
280
예컨대
한지
민주노동
청계
다음은
##이동
도약을
확대로
레알
일으킬
용기를
종결
##P는
##시키지
문의가
제8
이용자가
물동
세수
지급할
정형
묻고
적용을
실효성
일제강점
자연과
##포로
사업화
비서관
센트럴
##글라
손님이
##배송
등장한다
그건
##경주
경찰서
시민을
기억을
준결승
부장검사
10위
온몸
##현동
제네시스
9억
생각보다
높다고
발표에
지적한다
유권자
1기
##아를
시간대
급성장
않으며
3만원
신종플루
추운
##훈의
경진
##공원에서
슬라이
존슨
지도부가
발맞춰
##적일
재테크
빼돌
##대표는
어쩌면
##인력을
과거와
출발한
전시장
선고받았다
박영선
부도
극복하기
구입한
동백
전방위
##간다는
중소기업에
인접한
범죄를
부회장의
시각이
쉼터
##PI
##국어
채용을
당시의
14일까지
유래
한인
마을을
엘리트
참전
꽃을
##나의
##트럭
부산시장
전장
변화하는
전도
해산
##뮤직
##공원을
일원에서
서비스의
신사업
보라
골퍼
법무법인
방사선
에듀
2점
벤치마킹
방출
프로모션을
요리를
그루
전하고
이별
바이어
5층
달성할
##경비
환경과
경험한
##덩이
총무
비유
틀을
##7개
뒤에도
내놓지
컨설팅을
##피니
윤종
##정동
##격에
한나라당은
##62
아쉽다
##여명
##마련
얻기
본사에서
전문적인
##이에요
##맥주
중단하고
생산하고
하라
##범죄수사
승소
On
대하여
모험
라운
국무부
시기는
인수한
서비스다
물품을
저작권
진천
타워
##관제
##보좌
선수들에게
오징
제공을
보름
구축했다
영화관
서남
사생활
밸런
지나지
유한
##열이
대응하고
보습
광주지역
우선협상
현실에
과도하게
임산
기반이
성숙
##포장
##공화국
##경과
조문
드라마를
이해찬
공업
쏟아져
보호하기
기재부
시카고
무서운
넘을
쉬는
신부
의장이
로맨틱
에릭
11년
고민하는
한진해운
월화
##환의
자전거를
부작용을
##사이클
비박
북극
해외시장
삼각
##방식을
과거에
반가
##연대는
됐으면
의결했다
유저
미소를
##장터
##TN
이웃을
알기
##단지가
자본주의
마라
방송인
인근에서
##급한
몰리는
발돋움
차량은
대접
개선하는
전문기업
전달한
숨을
부산국제
거론되고
CB
스노
내셔널
팬들은
##했음에도
부문에
책이
가파른
싸이
혐의에
왔던
이자를
생각으로
유나이티드
됐던
이가
아쿠
##내용
실시한다고
1심에서
책의
데리고
하노
여당의
아내가
##패드
전문성
##㎡의
한국투자증권
평가해
일으키는
대학과
그와
##행위에
5단계
선발된
한남
밀접한
있음에도
##휴가
무섭
것이기
상원
단계에서
중견기업
소금
퍼져
산단
##식물
##미와
22개
민원을
이유도
외야
장소로
삼성생명
전입
경제는
나에게
##전에서는
기상청은
종편
##61
일반분양
생산된
늘었고
않겠느냐
16일부터
##책임자
고소득
호날
적발된
연락이
표현하는
상황이었다
##작은
3개의
포함된다
제7
돌아갔다
미래가
의구
임기가
특징을
받아들이지
생명과
##비엔날레
##물질을
중단된
라인을
##단지로
##혐의
보장하는
##호로
안타깝다
보스턴
차라리
고도화
저마다
##으로서는
트랜
##말이
##드민
안전에
##카운
땅에
천천히
OS
마시는
##직에
해준다
필터
##신문은
일원에
근본적으로
##기보다는
추측
##기능을
현실이
부산에
필름
장례식
장외
선도하는
친노
조건이
로마
##척을
이상한
예정대로
회상
평가하고
전속
올라왔다
출시할
##소독
읍면
베스트셀러
국제사회의
넷마블
진전
토마토
포수
반사
경쟁에서
OC
##림의
##데도
즐기고
진행하며
활력
내밀
맹활
이산화탄소
오디오
쳤다
##청장
일방적인
세분
제1차
##OA
쌓인
시민사회단체
1급
만찬
주민들
##레는
영상이
전망하고
공개한다
예상되고
기아자동차
경선을
논평을
적용하고
김씨의
터뜨렸다
않거나
##드라
##방위
라인업을
##주신
10일부터
리뉴얼
콜센터
그었다
정보통신기술
불행
건물이
걸린다
##구단
to
현상은
고작
용적
##차도
생활에
인상이
서울로
##파로
##5000억원
중년
이산
##일지
##루는
시선
주호영
매경
정립
측에서
##빈은
##국제도시
길로
해결해
곡성
승용
태스크포스
케이크
11월부터
삼국
##우로
발판을
수시모집
##스프
언제든지
##병원이
머물고
이호
얼굴에
경력을
방역수칙
닮은
언론사
##센터장은
##증후군
올라섰다
세상이
압박을
세계로
주관한
강등
힘써
없이는
급증한
직원들을
수호
##시에서
나서면서
조사할
명예를
중앙선거
상원의
융복합
구석
22일부터
사용한다
어려웠다
은행이
페르
활기를
LG유플러스는
주의를
##준이
울산의
바뀌는
자궁
해요
8조
5억원
시장으로
선거는
시간당
주신
##신당
승계
적고
##면은
##위반
길러
무책임
흥미를
곡을
이유에서다
서두
국회의원이
배치해
투자는
날로
이효
##경기장
##돌봄
가슴을
오렌지
김석
##종일
대체할
발전의
상고
김관
드문
##플랜트
건국
##디션을
자신들이
되기도
두드
끝이
관계부처
금융상품
달서구
##티는
대기업이
공사에
2만원
경북도는
제도는
임무를
##난이
불렀다
여기는
뛰어들
방탄소년단
##무대
##스틸
##라이브
가혹
우즈베
철새
##㎞를
직격탄을
탈레
##센서
2∼
본사를
##전력
추가해
회복에
발견했다
WTO
갖췄
##시험을
점진
위협하는
정전
3차례
900
##드민턴
헌재
양성을
바쁘
맞는다
박은
##허가를
치는
재수
조직의
보고서에서
성산
러닝
##설에
2세
마니아
선정을
원룸
펼치
의도가
##출판
만족도를
선발로
사랑에
국가주
참배
##집단
무등
결정적
경영에
인간이
쾌적
브랜드인
연습을
퇴직연금
청담
##소유
##들였다
##포털
시장에서는
수행하고
가져야
##투표를
제외하고는
잘못을
약화
판매할
처리하는
당을
수익률은
직거래
로버트
##병원을
기관과
##믹스
안면
2011년부터
소관
포함되지
##지구는
라인업
##음은
모습도
260
박민
세션
소문이
기술적
높아지면서
박람
산소
##도시공사
##보호구역
도정
에프
탐사
정신건강
집착
##특화
첫해
27일부터
경제자유구역
퀴즈
판문점
교장은
제9
##베리
붙은
양재
티저
가슴에
저자
벗어난
우뚝
흔적
치를
고품질
##공고
##혁신도시
논의하는
추진했다
국한
조항을
##수소
시행한
코칭
논의하고
홍익
투구
받았다는
피해자를
자기소개
안정된
사우디아라비아
러시아의
녹취
주민들과
##걸음을
천주교
##로직
할머니는
##RO
오키
하려고
##문화유산
2억원
##5억
무덤
##번지
위주
후진
싶어요
시행을
분양을
걷어
일손
세계랭킹
침투
단체가
화제다
장남
개회
리비아
##와도
거라고
##산업개발
창고
2012년부터
책임지는
산업부
##현을
031
변호사가
검사는
30명
것들이
건의했다
##있던
8일부터
확산세가
2015년부터
사인
강화한
##철이
128
대기업과
양도세
어민
포항시
##ure
순찰
퇴원
미래창조
민심을
차려
펼쳐진
치과
사계
##오버
몰렸다
주최하는
임기를
새누리당의
국가는
지급하고
요구하며
##대회가
바꿔야
##58
밖에서
또래
인물로
양호한
나서서
별개로
Con
현실이다
신입사원
경쟁에
됐지만
이태원
행진을
교복
##연승
##류는
시행에
얼어붙
충분하다
웰빙
아파트에
공연장
##실태
##학교를
주의가
##브리
관장
##형태
지급을
식이다
센터장은
당협
6위
공무원의
2TV
구성한
허락
서비스업
최선
마이크로소프트
운명
협의체
죽을
관심은
준비할
콘크리트
명단에
안정화
열쇠
경우를
##말까지
봉화
##대변인은
##00만원의
클릭
공개하지
오버
신세계백화점
요금제
주범
사실도
제출할
선동
공작
##조사가
계획대로
김우
##하기에는
불허
입금
프로젝트는
##선대
##크론
담당하고
내비게이션
아이오
블라
전남지역
##러닝
걸림돌
아파
그칠
메타버스
##함으로
##특례
알려주는
반대하고
어깨를
이례적으로
무지
예정으로
축제의
설립해
##회의에
2명은
설비를
불안감을
학년
##율도
만들어졌다
블로
수중
신성
##지거나
##노조는
한국노총
다크
안건
2종
답한
턱없이
대졸
##유치원
최소화하기
달콤한
황제
전무는
조금만
##했거나
진출했다
##연극
##개발기구
약정
서비스와
상승으로
정보는
있었을
사람들도
공영방송
일정에
##현과
포기하지
절반이
##색으로
잃었다
때려
않았기
신지
조례를
확실하게
정문
협상에
영월
선사한다
교육부가
4개의
삽입
추세를
일시적으로
개인적인
운임
있다가
영상은
요금을
자연의
##인들에게
구상이다
##님은
꼴찌
김소
권고했다
노릇
##티를
인정하지
파키스탄
성황
헬기
매트
홍천
12일부터
전폭
계류
양이
업황
장담
남산
치료에
##대표팀
부산은
KDI
명실상부
인정받은
짜릿
보증금
6일부터
양형
찍고
주관으로
운영되는
소셜네트워크서비스
##나노
앞장서고
우려되는
외에는
비행기
##합창
##철은
##AC
##카를
윤성
동력을
##으려고
발전할
팔을
위해서라도
2013년부터
가구를
건강기능
여론조사에서
##달러에
12월부터
조원
없었
##해보
동점
대의원
야심
되어야
의문이
IR
놀랐다
물결
민영
##시도
성균관대
해외여행
대구가
애정을
불가피할
쿠바
이규
길에
사이로
인가
하려면
접촉을
사태의
SPC
매력이
##드리드
마디
##프의
참가자들은
관계자가
다가오는
히로
전원이
알려지지
초보
성장해
##유발
결선
촘촘
연결된
시에는
테라
수변
처음엔
줄어들었다
##네이
전문인력
제기돼
25일까지
19일부터
시그니
회의에
보탬
##배가
특징은
형편
##채무
선수와
양념
우려의
예방에
##병으로
원활하게
##홀딩스
상생협력
내구
실제로는
교양
몸매
대한항공은
해소하고
주의해야
유럽에서
##체적
은행권
버스를
구속기소
##휴직
느껴지는
뜨겁다
2022
통보했다
기자간담회를
요소가
꿈의
세계경제
기준금리를
신개념
##방어
없이도
당권
시트
이준석
##검찰
손흥민은
초고속
##매립
무상급
소재의
##환경이
2일부터
목요일
13일부터
증거가
##제재
외래
2010년부터
어지
비과세
##블리
요구된다
새겨
스마트폰으로
머물러
CGV
사명
세우는
낮춘
높지
낮추고
도저히
안타를
생산에
고교생
기생
비판도
##원이다
지정한
전환하는
좁혀
첨가
걷고
양궁
역학조사
환기
##카는
플로리다
주입
##증과
시책
자신감
증가하면서
##선한
6시까지
메르세
도입하는
머릿
커져
나뉜다
스폰
신청서를
전기자동차
##ort
##권역
점쳐
엿볼
320
경감
잠깐
던지는
접종이
중간에
플루
국립공원
##대기
##점수
수익성이
고양이
행정복지
##폴리스
메이커
2008년부터
##추는
대사는
양상을
##재단이
##투기
가치와
묻지
행사도
##클래스
권오
##손실
##텍은
한수
SKT
트레이드
제휴를
##교가
많기
꿈이
##법안
##급으로
떠오르는
법과
위치에
수강생
핀란드
대포
##육상
짙은
사연을
맛볼
인물을
명소
만회
레이더
당선된
하나은행
##단장은
남북정상회담
연구가
브렉
7명이
이동이
수입을
LG전자가
9월까지
지지부진
알렉
29일까지
소비를
데이트
창출에
장중
가상자산
국토교통부는
후계
당선인은
적금
조장
기대되는
전남도는
##ate
부적절
사용하면
프로농구
유지해
녹화
한몫
계단
압력을
고객과
갤럭시노트
금융시장
희생자
70여
거예요
바리
마련한다
운수
2009년부터
병상
중앙은행
느껴진다
##비즈니스
김부겸
##단지에
공안
공범
아토
내년에도
지체
소설가
##부패
법관
이한
##았기
비판하는
선택이
12명
추진되고
주도하고
2000만
추가경정예산
먹으면
##웠고
리더십을
방식에
##1개
아쉽게
힐스테이트
시절부터
극히
나라는
요약
##준호
국민연
김보
21일부터
발표가
정보와
몰두
생각도
동일하게
거치
##행은
살림
판매량은
패러다임
##6회
점과
스티븐
판매에
클래스
농지
반찬
예쁘
17일부터
미지수다
2만5
애플은
국군
단정
서울시의
##주공
사연
사전예약
중징
##정신을
건수가
한국농
디저
지적한
바뀌고
신당
유방암
##체전
가정에서
노력하는
다가가
피아니스트
중남미
정제
잔류
고품
대표도
한경
##하느라
##TEU
재정비
양파
반경
시총
흐름에
어머니는
24일부터
KT가
결정될
자연을
인근의
구인
##사기
##3만
구조가
이사회를
살해한
##들이는
메르세데스
2개를
스트리밍
바가
표현의
선두를
##투자를
조성한
최씨는
##분은
가정을
##물이다
최근의
수도권에
테마로
국내산
디자인으로
##망의
##6만
##란이
##암동
바짝
##분할
생기면
23일부터
개인투자
5일부터
그릴
4곳
유도하는
쪼개
숫자
우수성을
적당
접수를
전력이
##적이지
##변이
가자
여수시
활동은
작년보다
이해하기
3위에
통증을
##산성
사이클
유지하기
##디움에서
100대
노동자의
대리점
엔씨소프트
생필
##타가
학생들과
습관
역사에
목표가
어우러져
1000여
2000만원
불리한
##300
노력으로
수해
##ist
##orea
취해
EV
업무보고
중장년
경기도와
유격
##조사와
긴급재난
##ON
읽을
초월
탐색
결혼식
방문할
자릿수
친박계
##글로
어디서나
##의회가
가르쳐
차에
##7만
리베
모이는
##클러스터
일부러
기업이다
옮기
이희
도로교통
25전쟁
구례
페이스북을
국공립
애플이
존재감을
구조조정을
냉각
노골
##학의
자료가
##협회에
설명회를
그라
##텔링
##단지는
##해야만
##구리
최종적으로
##설명회
OK
깊게
##리칸
듣기
실수를
##의의
연탄
##편성
누워
##2개
7일부터
에디션
살던
시즌2
김경수
##공시
한국GM
비대위
우즈베키스탄
##유공자
결실을
단계를
진한
설악
한반도의
민심
지킨
##성능
##테크노파크
둘레
혜택도
##취약
지루
수탁
예로
미래창조과학
##두리
용지
##먼지
아닙
딸기
수사의
게시판
##농산물
목소리로
다졌다
##실습
팔레
##위성
포지션
우려하고
심포지엄
지방선거에서
##내과
대결을
집중호
벽을
법적으로
무능
씨앗
##쟁이
말과
노리고
패스
뉴타운
##용수
반영할
##조절
선대위
참으로
도시가
성격을
집이
엉뚱
다우
전문가는
정하는
터트
요청할
6000
산업은행
수순
김연아
##ain
t당
양해각서
탄생한
##공단이
나뉘어
##성향
안건을
SH
수자원
음란
##씨에
2개의
구원
관문
인접해
무언
모습이었다
환원
의무적으로
견해를
밀레
좀더
대회의실에서
등기
##회사에
풍요
외교통
15명
##더러
750
폼페이
HM
와중에
진주시
다녀온
끼고
작아
무의
##가구에
##영과
##네스
기관에
용납
##만9천
센서
혐의도
개표
게스트
윤상
후보들이
스트라이
보석
제도의
김신
나무를
##정화
당시에는
남경
6개월간
옹호
##마리를
##시민의
얼마든지
##군사
벌어질
사안에
쏠린다
석방
환경단체
매출의
폐막
호소하는
외환위기
##훈을
##덱스
상장을
성장의
여력이
##내려
최성
방안은
해커
시신을
인지도
3월까지
차지하며
극복할
묘사
##으려면
한시적으로
##자동
22일까지
방침에
분수
70대
##대장
함평
형상
활동으로
##드에
##음으로
개최했다고
등에도
아저
BNK
실명
용도로
초기에
##중근
입상
최저임
14일부터
블랙리스트
자회사인
정조
풍경을
##모로
확진됐다
##사업부
KBO리그
받도록
5㎞
수요는
맡는
빌라
급속히
표정을
사형
외국인은
디자인의
##사업인
웃도는
출사
19개
마드리드
해저
구청장은
##ET
관광객을
사회적기업
보아
낳고
매각을
LIG
크다고
박현
빌보드
감각을
세액
##가면
테스트를
이화여대
내놓는
발대
##틱스
##의무
##개발을
##디스
전기요금
시작했고
조금이나마
다가온
하자는
##프로젝트
##의사
줄기세포
초반부터
후폭
올린다
취득세
갖춰야
도전한다
커피를
##갈등
경제협력개발기구
기사가
적격
##초가
계획이며
위원장과
##하를
성장동
수치를
##실적을
컨셉
할당
진행을
제시할
증인으로
홍남기
##캐슬
최근에
##버넌
쇠고기
감염경
##업무를
쏘아
추천한다
강제로
##드래
##전인
하에
##카르
예방하기
NHN
신분으로
OTT
최민
최경환
1주택
간이
이벤트는
좁아
뜨겁게
혈관
한국으로
시설에
실험을
취미
##강좌
##사실을
##되더라도
##iz
11월까지
Sh
다양하고
의무가
중대형
무리하게
##장으로서
비교할
내건
##순위로
##말라
##비율이
수만
2030년까지
굳건
유익
물놀이
정신과
당국자는
##사단
그동안의
주석
21개
팬들을
연속으로
거칠
섹시
터진
##편으로
5명의
##반이
어색
노년
휠체
##지회
흥국
도울
방역을
일정은
환율이
##4만
데서
9일부터
변경을
드레스
비용으로
##9억원
사라지고
10월까지
나타났
홍대
##속을
강점을
이면
##객이
미국산
신원
잡혀
방향에
##교는
##해달라고
허물
전문가의
승리했다
복선
총리와
군부
수도권의
KIA는
공동연구
검찰과
아이언
대단히
F1
무리가
##질서
##았습니다
최진
소신
##87
구본
정치에
만일
국민참여
##이전
청소년의
열광
주를
##청약
순천시
기록은
기조를
민주주의를
허용하는
##커뮤니
YTN
KC
##내에서
광주에서
26일까지
목사는
사장과
하나씩
많았던
뛰어든
구조로
##통운
##온이
페어
선호도가
일으켜
원형
추진될
없애고
아이는
딸의
##일과
##중단
박희
만드
##았으나
사업시행
외교적
부분도
동두천
##야마
불고
박승
1000억원
현대차그룹
지시한
질적
##오드
단계로
1호선
##케이블
##1만
##여야
돌이
논란의
가동을
중소기업을
##오스
11일부터
사망자가
주도로
##저장
행사장
사무실을
휘말
만족도가
##니가
댓글을
23개
규정한
살아온
고질
양극화
콜롬
비로소
성립
성적은
공관
삶은
롯데그룹
##브리핑
##탄생
##교도
공유할
역으로
17일까지
충무
자이언
채널A
내세웠다
BC
20억
근로시간
빚은
##에미
정황이
##시스트
평가받고
가지는
자란
증가와
시점을
커넥
국민들은
임박
##속에서
회복이
최하위
방안으로
##자와의
미미
풍력
제공하며
##미노
획득했다
토너
샤워
##IST
##염을
성공적
##나가고
이용하고
##상업
이슈를
앞세운
고강도
참가했다
길거리
##들보다
##컵을
심하게
취지에
시교육청
추가했다
소외된
통보를
미쓰
브로커
##원장은
법조계
##ub
##크가
포기하고
변형
미국인
많게는
##도우
이스타
자는
이동할
##참모
중요하게
출루
QR
전환이
발휘할
공부하는
내부에
##키트
##버섯
군위
정치자금
이고
##선발
놓았다
제일모
출연하는
실린
영역에서
중시하는
정치권이
과감하게
사이트를
지니고
나서지
##되길
부담으로
리드
가전제품
28일부터
##프린
기어
##페이지
500m
폭등
##잡을
앞바다
품격
옮겼다
협의가
단독으로
진상조사
등지에서
옵티머스
##지구에
개선할
한나라당이
11명
언론을
2014년부터
임시회
레벨
24일까지
거꾸
보편적
1m
27일까지
잡힌
모순
공장이
결론이
유무
입에
##오지
조용히
##114
영향은
무상으로
주장하며
티켓을
4년제
작품의
회사에서
남양주시
2007년부터
방송은
시국
하차
깔려
악재
받아왔다
구간에
악순환
##겠다며
시도를
법에
정차
1986년
생산이
사은
2명의
##영역
윤곽
##등급을
날려
철원
혈압
하늘을
재능을
유정
13년
##운동에
뉴스를
향하는
국민권익
대금
막혀
부스
PF
겪어
시선이
##ack
세력이
건넸
실천하는
네오
화백
##열차
나타내고
시드
##설립
아내의
##거래일
디자인이
대강
##골로
국내에서도
귀여운
못하면서
##전적
##회의는
하원
타격이
경로당
했기
주목받는
보탬이
것들을
환호
종일
고난
대화가
국정감사에서
전통의
쿠데
두꺼
종목을
사업자가
이순신
투입된
산청
악의
급부상
기능과
st
2라운드
##바퀴
원이다
한국당은
떠넘
그라운드
##니의
11일까지
프로그램인
두산은
여러분의
거치지
구도
퍼스트
금지하는
신호를
##집은
고향인
##크의
독보적인
얻게
활용될
##00만원으로
샀다
확인을
##도시철도
Al
전철
포퓰
5∼
의석
알아서
아메리카
##사업본부
치즈
소득세
뿌듯
원어
실적에
쏟아냈다
가입을
형태를
제한이
스미
어느새
태화
연산
##5만
경기부양
30일부터
준비해야
##만원에서
##였다고
다시는
##계로
신제품을
##물량
하루빨리
##츠는
##도르
명도
국민의힘은
촛불집
조직이
감옥
원칙적으로
정규시즌
아름다움을
극우
모던
1세대
##규정
발표하면서
개방형
##폭탄
##도전
##1회
줄어든다
라스
MA
성찰
##동포
조치다
선물로
##위원으로
연이
신중하게
##심의위원회
##삼진
늦춰
분과
수도권과
소송에서
두산중공업
##ES
##보호법
설계를
##브로드
끝나지
##라이언
##이었는데
파업을
##렌즈
영화에
나오자
어선
쏘나타
거꾸로
폼페이오
존재한다
물가상승
때다
정신이
공짜
융자
운영과
##사고가
##제안
##난방
공언
오르면
##보에
##어머니
##들에겐
NLL
적대
기록했다고
간섭
##수용
##금고
강변
##보의
자치경찰
뒤진
어디로
##쿠버
##쳤던
휴업
한동
##병은
이상이면
착각
연방준비
지방분권
##협회와
연결되는
##보훈
시민들을
면접을
녹색성장
소요되는
설문조사를
진출할
##모의
재계약
e스포츠
국정운영
만들겠다는
교감
##네트웍
대표에게
##주류
##FP
예산으로
김문수
심플
재외
파헤
##고루
##디언
놀라게
400만
코믹
##검증
제2회
김해시
강연을
캠퍼
3일부터
##모는
##OD
절실하다
##멘텀
##중의
통계를
가미
흥미로운
처리가
활용하면
덕분이다
부문을
##당국의
전남대
보험료를
이견이
똑똑
세대의
18일까지
몸의
사무실에서
3명은
선수들과
편이
백신의
##구도
순매도
##택지
YG
최근엔
오가며
근린
천안시
발길이
추진해야
의상
주민은
점거
##이어야
늦어도
지켜봐야
5일까지
보였던
확고한
배신
꼼꼼하게
어워드
##였습니다
내포
긴축
배우자
타이밍
En
##수렴
##케이스
23일까지
##8개
교육과정을
거야
수련
출원
##운동의
공모에
어머니의
자동차부품
수장
앞섰다
불안감이
##용의
수석부
전향
환자에게
총사업비
29일부터
아내와
보호하는
204
부시
시범사업
긴밀히
않겠다고
견학
인천항
어린이들이
##비용이
##생활에
단계별
체코
빼놓을
용어
피자
##간이
신정
틀어
어학
올라갈
기부금
미스
일대를
입장은
재미있게
##행성
##82
##불을
중앙방역
공식적인
완성했다
모습과
군대
유휴
작고
000원
인상에
국유
명칭을
최전
##자흐
비상이
고려하지
5000원
유물
있었으나
거북
발전시켜
처우
그리는
ESS
##종사
현수막
##기야
##게이트
4일부터
임영
공개해
눈부
일어났다
들면
하드웨어
2학기
넘어서는
우리나라에서
##극을
접근이
1천5
항체
##유니
##음과
단기간에
오찬
강화해야
관리와
만들어낸
해줄
포털사이트
노력과
공용
대구를
증세
장벽
다국적
20년간
1년이
리버풀
송구
##번의
##농업기술
않더라도
예능프로그램
TS
클로
마술
오송
거시
특가
물리적
고인의
높아져
걱정을
낮아졌다
##병원의
않습니다
남자의
넣는
앤드
요청하는
회사로
##바이스
도교육청은
공공주택
관제
증가했고
##정책이
행보에
향상과
증시에
##내륙
##방과
아이스크림
##세탁
사업인
114
역할도
##우면
발견한
무시하고
디즈니
약을
공세를
주민을
대주
소득을
말했다고
구성하는
희망이
깔끔한
대안이
초에
##제어
맞췄다
##하겠
법학
외국인의
아랍에미
투명하게
출신이
##밥을
정치적으로
하려는
상승률
동안의
연고
나아갈
##억달러를
공인중개
CT
사정을
반발을
미래형
3∼
영감을
9시부터
for
##모토
힘쓰고
제때
실시된
회담을
부담은
종부세
숨겨진
제일모직
아침에
대관
청와대에
센터는
장인
장치를
50분
어렵지
장르의
12일까지
면담을
필요는
건설에
농사를
선명
알고리즘
우려해
협력이
감소할
대략
소셜미디어
고위공직자
OST
공이
결정됐다
코리안
##치인
갱신
창출과
신탁
##터테인먼
골고루
출연한다
지위
편견
낭만
정국
최형
##다니며
영향력이
습득
공공기관의
관심도
고효율
통하는
##테러
##ue
##가기
설명하는
가상현실
코로나로
표현이
##혈관
분배
친구들이
다듬
정착을
완화를
##모바일
노력에
협정
로펌
노력했다
##00억원의
의뢰해
변함
마음은
성과는
후보자를
##오리
나누어
싣고
어디까지
낳은
##급의
##갔고
##위기를
수립하고
진입을
정비사업
자처
요원
사용된
품은
##주들이
것이어서
띄게
진동
높아진다
떠날
세로
삼성과
중앙대
버블
비관
프랑스의
과감히
풀려
결렬
##혁은
##대책위원회
남편의
벗고
지도를
돌렸다
##자전거
재탄생
연구는
고영
##억원에서
사안이
##워했다
오차
거울
스가
애를
##합동
끊임없는
시민에게
마신
초당
순수한
특위
중앙부처
안되는
엄중한
##만원이
심상정
종합적인
발자
상대를
자의
죽어
틈새
##되기를
부위
다닐
되지만
개편을
헤지펀드
뽑은
막걸리
8명이
개인전
송영길
키우기
아이파크
2위로
임의
와이파이
자연스레
까다로운
이겼다
비수도권
##BI
##문서
걸맞은
고덕
도봉
참가할
것일
소유한
2년을
입대
토론회를
##특별위원회
걸까
전염병
마찰
3개월간
##조사는
한화는
이산가족
정면으로
자신감이
낮췄다
자긍
피부가
##경에
이근
관통
##기후
바우
재료를
세인트
지수가
데일리
영수
전년동기
효율을
##공이
정산
##학교는
##수련
1건
19일까지
백신이
기본으로
거죠
경쟁률
만루
전가
작용했다
##산업진흥
##미에
지자체는
가지를
##반은
카드사
##보이
1을
상봉
예민
김영란
유지를
KDB
##지향
금융위는
포함하면
##M은
지원하기로
시작을
1위인
##구치
예정이어서
핵심이다
가만히
불명
실태조사
##PO
세계보건
없다며
두피
내걸고
##판은
버린
저조
영예를
집주
수도권에서
확보와
지구촌
지역사회의
제품인
곳의
##였을
위협을
초미세
무색
좋지만
##개선을
관광객들이
빅뱅
일체
##여론
여고
##4일
비주얼
아라
내어
아버지를
부진을
펼치며
도민의
매출액이
경희대
성장률을
GS칼텍스
높인다
평균자책점
참석자들은
카자흐
화요일
진행돼
##속으로
경제활동
도입할
가습기
투입되는
기자의
##PD
우아한
교사의
##번이
추궁
공무원들이
조카
개선하기
##바바
참석할
열대
FO
3000만
##하겠습니다
##품목
방사성
구축한
##민주주의
공략에
면치
경기회복
세대를
캠코
스케줄
장동
스스로를
회장으로
서해안
1000명
겪을
임을
##선박
##od
움직임에
##업체들은
생활용품
다투
##측정
규모인
경영진
사라져
부여하는
취항
기억에
영향력
주인이
시대적
과학적
신고한
표정으로
활기
설탕
정치의
컬러의
##시설도
##안심
일주일에
맡을
600여
박기
##처로
감소하는
정영
도지
마시고
2016년부터
학문
멈추지
사서
검토한
트레이닝
모처럼
전국적인
구속된
##세트를
##5개
살릴
##인들을
마을의
그로
용산구
주민참여
이목이
운영한
40만
대구시가
거부했다
자기자본
실태를
구강
임실
생활이
참석하는
가담
##교의
참여하지
부합하는
##디는
계열사인
지지층
일으켰다
문제점
제10
8월까지
일련의
초빙
##마라톤
##맛을
투자자들은
모델인
##전문대학원
노스
세대가
촉구한다
며느
무릎을
##확대
화재가
기둥
씨도
열애
평가한
싸움을
16일까지
##블루
공개하는
서거
결합해
##단독
GS25
차지할
항구
##능력이
김시
##지배
다닌
지켜본
##교수는
글쓰
홍명
집적
매직
회원들이
##플렉스
지속해서
응답자
것만으로도
##동아리
불과해
여느
듀얼
우상
증축
있는지를
누르고
##세인
##분으로
발동
일부개정
뛰어나다
친정
##위치
논산
##거점
구간은
##렀던
감소하고
법안은
참관
아쉬움이
9일까지
##창을
개점
##기관은
방역수칙을
통폐
보온
완치
한신
키웠다
##라를
확인하기
수퍼
##개발원
중산층
##걸이
자발적인
##스트는
##출입
일삼
상류
소망
1년여
짚어
밝히면서
포퓰리즘
##판에서
문화유산
상승할
재확산
한자리에
받았으며
그랜
없어요
시승
지역내
##움의
부족하다는
달이
##금지법
##IN
결정한다
##민주당
투자은행
진출해
자부심을
단어를
쥐고
무너뜨
공시가격
예천
자동차를
지금보다
##버거
중요하다는
책임은
전해진다
##2만
기여했다
광복절
아메리칸
##강사
대중의
실거래
영문
행운
##러브
가져다
이어서
커리
적절히
분명하다
##재난안전
뇌졸
##ial
정대
##단체의
연기가
사망했다
##매니
펼쳐질
변동성이
날개
##영어
21일까지
응답했다
시사했다
위해서도
획기적인
그러한
##아산
앞다
Com
##공대
경보
논평
##졌는데
귀띔
##결산
딛고
소방관
글에서
완료되면
제목으로
도둑
밝히며
##구축
말아
통지
레버
위스키
맞벌이
##연휴
훈련에
알린
합천
평가한다
##인구가
경기도의회
##사리
봄철
##보고서를
##IS
숨겨
통과했다
##이지리아
남아있는
중추
##대상자
모토
모멘텀
전승
회화
나오기
##물질이
삼았다
실시설
소식통은
철폐
경마
##투자는
업무가
출마한
경력이
신예
정상화를
검역
다산
##위원이
특별공급
증가율
##착륙
주기로
충주시
낙하산
포트폴리오를
유소년
##겨울
급기야
##교부
##결합
올해에는
가족은
종목은
경기북부
입술
요양병원
재택근무
무대가
호반
##림으로
수업이
보험금
자사의
##파트너
##래를
김호
1이닝
교직
접촉한
취하고
지역인
넘어설
사자
인내
절도
차량용
2m
8일까지
서울시와
##두가
과태료를
금방
이날도
보일러
육성에
##ear
남는다
##수습
대용량
점유율은
남자가
이글
해양수산부
제주시
반부패
##째로
103
평창동계올림픽
푸르지오
영상으로
지지율은
직후인
머스크
소통하고
중점적으로
경로를
일한
남도
신념
확대가
##센스
연비
극본
총장을
폐암
##LA
매운
당당히
관전
그들을
계기
한자
##창작
이후의
활동과
##인터내셔널
가르치는
행정사무
구조적
못지않게
##란한
유지하면서
1억5
향했다
104
파울
전대
세상의
잃어버린
대책은
한ㆍ
삼성동
31개
사로잡았다
차고
대웅
##지역인
##팀으로
제주도는
인기다
필립
##크스
##니스탄
##병원으로
드릴
친문
동창
MBA
공학
##여자프로골프
주민투표
압수
경륜
달빛
망가
재원을
효율적
연도
분노를
적임
추천을
오키나와
모티브
인사청문회
주둔
연출할
##역량을
조성과
오미크론
영업이익을
최우선으로
##교육지원청
눈높이에
몸과
양주시
주위
근무한
지금처럼
하이라
효율성
##히기
압구
여기에는
장군
##갤러리
예상한다
자격으로
장으로
디스크
상승이
구할
서포터
모스크
기간제
##ect
지도부는
SO
위의
문성
콜롬비아
막바지
##중소기업
좋다고
판촉
내며
평가된다
담보로
의하면
시작될
형성된
감기
미투
전통을
달여
제기하고
##보게
메리츠
과의
##펀드는
여기저
85㎡
부모와
총괄하는
상장사
##96
접근할
점프
중수
객관적인
##교육이
24개
국정농단
나이지리아
열기로
입성
때면
오마이
무산됐다
##범은
##러드
보도한
전한
정정
##방한
##워진
구동
지문
청소년들의
접목한
사람으로
이랜드
무늬
##혜의
##시킨다는
도와주는
민영화
##분해
인터넷에
유용한
광주는
더이상
스토리텔링
않고도
건강관리
였던
걸어서
금천
세상에서
나스
원장의
건강하고
##짐에
장소에
토지를
##생은
시점이
여러분께
SSG
그래야
끔찍
수요일
대청
역할은
##연주
##안으로
값이
연령대
살펴볼
조사했다
인출
사원
##나갔다
대정부
의미에서
사안을
4주
목을
##제이
질병관리본부
7일까지
먹은
##테이
##본부를
촉구하고
##절로
판단이다
서예
인천은
논문을
본관
조짐을
##맥을
##인인
오징어
눌러
격차
막말
후문이다
청각
##경찰청은
직권남용
바람직한
입당
세척
##놓는
이도
스토리를
##지하철
이들도
##라운
배우가
##연했다
1만3
작성해
더해져
수돗물
일으키고
##규는
쏟아지는
이해하는
따냈다
박모
##ice
기술에
권역별
안의
경계를
마지막까지
##였기
현금을
##창의
차가운
1라운드
반려견
평상
##가구의
##앤젤
백종
##기상
6일까지
팬들과
적용돼
본지
##국수
긴장감을
달걀
영남대
우승한
##단체인
튀는
유난
여론의
구하기
##카드로
입수
경제위기
엄마의
##지원과
영남권
언덕
이혜
##숙이
##9억
##백신
##욱은
통신사
장타
금융당국은
##항은
##워즈
##경영을
최연소
풀어야
비서실장
법의
기획한
잇따른
기침
해발
폭의
##란스
책임감을
길고
내준
##세이브
##행위가
##연하게
스페이스
9조
##됩니다
550
현대차의
##증에
방송사
살펴보고
말하면
사막
시스템에
요청이
미중
하반기에는
and
##락이
총기
##2동
김해공항
박명
직원과
경남도는
지급한
새삼
채팅
씨티
##장치를
##보존
본토
폭넓게
무사히
끝내고
상륙
최상위
##비율은
대선주
보탰
조사와
생선
인연이
이라면서도
중소기업과
환율은
유리하다
송전
간사
원더
##83
적용될
늘린
한도를
그치고
저평가
한성
로맨스
프로그램과
창출할
IF
역할과
전문가와
하소연
포인트로
조상
연달아
##건물
50명
관철
성악
##지자체
배경에
식약처
수평
챙기는
일축했다
아바
추진한다고
시멘트
국제선
꼬리
섞어
피서
형평성
##틀을
##오션
9만
다방
국회의장
13일까지
하시
고려하고
혼인
##개국에서
낭독
바지
내년까지
신설해
순조롭게
다져
##지역이
온라인몰
##주점
##농장
생각합니다
##영수
##관계자는
연천
나름대로
실속
리스
불출마
개가
스티커
시설과
일깨
##리기도
재판이
파인
해주고
##옵션
피력했다
삼성바이오로직
늦어
심각하다
실손
대전의
역설했다
무형
##나가겠다
조계
##김치
드러내고
배드민턴
무분별한
가격의
사랑이
서술
쇼트트랙
전액을
공휴
진술했다
주제는
모르게
종식
유럽과
거부하고
바위
햇빛
카자흐스탄
##경기가
트윈
##드릴
환자들이
##종에
레전
지적하고
과시했다
과정의
출연했다
나가기로
담배를
소홀히
스릴
공정성
재산세
가능했다
기반한
돌아섰다
바라보고
##53
협업해
공보
한파
절제
##MP
축제가
은행들이
지옥
##더군요
##기정통
투자하고
불편이
판타지
직장을
오르내
세울
전립
효자
##정밀
파악하는
급격하게
차익
##시대를
유쾌한
의원들
쏟고
울산시는
인위
팔고
자동차보험
해달라
##무진
기습
서천
전자랜드
회의는
이날까지
재조명
결정된다
입장에선
탑재한
중요성이
희망한다
NI
아랍에미리트
4승
MZ
업소
같은데
AFC
제의
##링크
인연
KT의
대화의
수상자
엔지니어
밝혔지만
과기정통
당혹
실종자
##하가
터라
명확하게
시인의
##시경
##시설인
##소녀
기념식
##ech
정씨는
##수요가
형이
연차
바닥을
펼쳐졌다
갑작스러운
짐을
보좌관
도덕적
삼진
시스템으로
실려
##관리공단
##틀어
시민들과
인정할
석면
사하
건물에
맞선
##석유화학
5점
기대하는
부검
##요구
원칙으로
##에요
지속되는
2017년부터
정치가
##만8천
Pl
2차전
##강은
12만
자율적으로
건강기능식품
백운
무너지
##정수
추진이
차지해
경각
##속기
이코노미
낮고
표현할
스타일의
주파수
활동도
자선
##왔다는
##마루
경량
##도시를
이용을
8000
백신은
##ight
통하여
80여
트렌드에
로스앤젤
1985년
##버리는
하여금
일각에서
손목
확인해야
배우들의
도입에
##이겠다
##스타트
만나게
휴먼
오만
중환자
양측은
검진
타운
행렬
책임지고
술에
지역별로는
##콜라
생산량
양국의
확산될
건넨
기차
밑돌
투자로
내다보고
문자를
배양
##무기
수준은
클라
증가가
집중해
각별
보이콧
이하인
남편과
치열하게
##공구
파이낸셜
역점
스파이
##창고
지자체에
초연
저수
경선에서
안보리
해법
방역당국은
집무
묵묵히
##모델을
##ev
행동에
전량
지름
성향의
남경필
이들에
##97
맞추고
장원
절실한
식탁
200m
자금조달
전적으로
공산당
계신
얻지
고른
생명의
실패를
추기
휴대전화를
##범이
걸로
학자금
플레이를
지역사회에
고분
초음
열기가
공급한다
네팔
자리한
총액
개인별
아니기
##실련
넷플릭스
필두로
##했다며
사무국
##처분을
이소
주머니
##시기
##편한
의식한
##오면
과수
통화를
이스타항공
##드리고
도입하고
지방선거를
돌발
##기초
##경선
소비자들은
피트니스
이사장이
진정성
전지훈련
있기에
지금껏
날카로운
옥상
기술력
슈퍼마켓
쫓겨
펀드에
노력한
3사
뜯어
##움은
팔렸다
민주노동당
소명
##ill
프로젝트에
##모빌리티
이전과
##슈퍼
달러화
장갑
Fed
성분을
망설
##님과
##하는지
기내
활동한
취득한
산하기
어플
만장
생체
쫓아
##출신
##난에
위반으로
편향
6배
무이자
세계보건기구
경위
낮출
구별
원대
할아버지
##면세점
##per
사양
사태는
소통이
테이
출신이다
4명을
이루어진
DGB
교재
동거
버렸다
오르면서
##산림
##워킹
당신의
재심
액티브
조롱
뉴욕타임스
헤이
회복세를
딱딱
##VID
읽기
판결에
알레르기
100일
국보
파장이
PA
먹어
##ast
국제적인
적용됐다
##스토리
강점
횡성
알뜰폰
시작하면서
검증된
##웠지만
받던
반문했다
##2회
기업은행
협약에
안무
돌파한
##경보
옮기는
수단을
##스퀘어
샤오
안주
중에도
##교과서
결핵
당신이
##망과
순간을
3점슛
사계절
추천한
한림
확진자와
광주를
테크노
유령
마당
지방재정
##광장에서
구비
치러지는
##복무
뮌헨
사학
국제기구
소비자를
신촌
감탄
보장을
구해
정운
투쟁을
저조한
##56
착안
평가도
발표는
필요성
잦아
사고는
초래할
##교환
##타리
규모와
1명을
침대
거버넌
##직으로
섬세한
모였다
개인적
운동에
##트레이
폭력을
없었다는
##이냐
이동하는
##병의
장면은
해결하고
근로자가
커진다
##주세요
뒤따
양사는
자기주도
붙인
클렌
거론된다
고객만족
##부인
피터
배터리를
치닫
##분리
##접수
신한카드
하이트진
먼지
UHD
국정조사
##리바운드
아닙니다
##하겠지만
##층에서
사용자의
시ㆍ군
없었지만
필기
거취
##졌으나
전환했다
아토피
60년
노인복지
백령
##개발사업
팔려
적재
무너진
전라북도
AD
밤에
##방으로
머리카
##측에
##8만
것과는
한숨을
##다니는
관계자도
헌정
##자산관리
포기한
카카오뱅크
기능은
1대1
세계유산
집단감염이
광장에서
스티브
KGC
이날은
국가균형발전
더불어민주당은
온전히
신뢰가
메달을
카르
최소화하고
선정할
##네상
알리바바
가정에
바람직하지
노력해야
농사
민병
##호수
분야가
접근성
대남
인류의
##겁고
해소할
개도
광범위한
거부한
##길로
모으는
듯했다
수당
땀을
힘들게
##폭은
징후
##만큼이나
유일하다
의료비
##하기보다는
선사할
Th
생산되는
비결은
응답은
이해와
##공원과
감독도
수준까지
홍보에
트렌디
슈퍼스타
교부
감정이
조성한다
CEO는
중위
표창을
1주
싸게
패스트트랙
소개한
시인은
##EV
한국은행이
영어로
웨어
정용
대구에
속옷
##00억원을
듣지
여성과
고객들을
그러면서도
보행자
##공동모금
시그니처
공급과
##기보다
식당에서
호르몬
도시에서
7기
리츠
의욕
품목을
14년
기뻐
선정하는
거듭날
설렘
발명
초유의
농성
공격에
찾아오는
시설은
번째다
이차
관객들의
유영
000만
편한
검사장
제출받은
필수적인
담을
급변하는
마을에
내에서도
##1동
점포를
##웨이는
투약
총동원
제작을
입주를
토론토
인프라가
법제사법
##증가
키스
의약
경사
##민원
Sp
주면
##의학과
액화
울주군
명절을
나이트
이튿
실력이
전하며
##교대
농약
순이다
한국도
##식도
표류
1982년
생기고
##상황에
##치유
##페어
##국이다
사과했다
네이버는
누리고
##신문이
##금리는
합류했다
##건에서
다저스
##ark
확인이
창설
마일
축산물
무작정
피고인
##소매
책임자
##접종을
파악한
나타나지
안은
세탁기
들썩
결승에서
650
하루를
민주평화
살아야
날렸다
보러
사업에서
강해
리뷰
조건부
성명서를
7위
춘천시
심재
##억달러로
지향하는
출력
##워서
김태균
##하자마자
보여줬
이튿날
##파티
반도
기반시설
##변에
지중
신용평가
한국사
대상인
반영될
##무장
다니며
파업에
강타
구조다
떼어
샘플
##속도
코스를
##병에
단지가
가정용
결단
##제도가
##적이며
도전에
합친
양을
개정안에
서울역
##리브
3차원
##화질
복귀를
김범
극적인
업계가
달라진다
농기계
손수
##세대의
##운동장
순창
집합금지
가닥
먹기
밖의
아이디
3일까지
거론되는
##조와
SK그룹
방송이
은행에
역부족
입학사정관
건국대
외부에
##기아
두지
##태영
5곳
흑자를
위배
승리의
내주
답변했다
창출하는
비판의
학부
돌아올
1년을
아카
인양
한숨
아마도
이범
##여부를
유튜버
물은
안희정
만점
##하셨
왼손
일렉
경제적으로
셔틀
안상수
보호하고
1위는
##수다
쓰레기를
축제로
##one
교향
전반기
##이었다고
간첩
탔다
##시간대
공급망
이뤘
제작에
버섯
영위
땅볼
##차피
13명
트위터를
연료전지
뛰어들었다
에르
##출동
##룸에서
##이치
예상돼
연출했다
유난히
흔적이
##지원이
종목에
성장률이
져야
영원히
정현
5가지
##소리가
인터파크
안정성을
끌어올렸다
한은은
야권의
돼지고기
놀랍
물의를
코치는
사거리
테니
관련해선
불분
MLB
여당은
운동이
결단을
우여
##터의
남녀노
챙겼다
##인민
신속하고
일곱
루이
콘서트를
종영
##시대의
##쓰레기
불발
안치
어드
##메이드
사회적으로
긴장을
##직업
완료하고
단풍
1㎞
폐지를
않던
혁신과
첫번째
것이라며
##원으로부터
거론하며
자기가
금융지주
##WC
5월까지
수박
시행된다
렌터카
불쾌
##가도
##54
##테르
방역에
현저히
데에
해준
풍선
탐지
##플란
유발하는
##다보니
카메
어차피
사라질
과언이
국제통화
수사권
##즈에
107
##30일
종북
조직개편
실기
안겼다
원자로
##골이
노동자들의
밝고
번복
우승에
미쳤
106
사회는
숙소
##레이트
##협회장
눈물이
제자리
무엇보다도
##ld
##운동연합
##넥스
화산
2006년부터
빠지는
위원회는
누리꾼들은
청약을
공기청정기
공연과
학살
마무리하고
뒤집어
김모씨
내줬다
경북지역
금속노조
##화도
비자금
관계자의
최고위원회의에서
압류
##ace
##는지는
권한이
바이올린
죽음의
생생하게
현실은
실사
재해석
##재배
구축과
플래그
마운드에
오해를
골드만
가구는
##스튜디오
관계자들의
##오가
화를
삼는
##렸는데
##째인
힘들었다
선언을
고급스러운
야구를
공백을
##시로
50개
지금까지는
인수합병
시중에
호투
금융사
예상됐다
휘두
##GO
##장에는
표적
##장관이
부담해야
##에야
재판에서
##상위
래미안
##유는
시장도
재난안전
순위가
움직일
제정을
기동
이천시
반영하고
부쩍
파4
이들과
바비
소품
애리조
생명보험
공로를
철학을
상승률이
##이었다는
음악과
블라디
선풍
일평균
##디스크
우익
##주의료
터보
경제민주화
사태와
찾아보기
##마한
고가의
청장
##틸리티
지속할
성과로
산사태
숙원
들어가면
사각지대
마음대로
개량
사회주의
개조
생산해
마구
중랑
못한다는
연결돼
코디
분량의
성금
##감소
무게가
##장구
##명이었다
불매
시리즈를
##주에서
이례적인
외로
달성군
들러
##만6천
가량의
못하다
즉석
TV조선
입증했다
능력과
분식
이마트는
화랑
극단적
기여하는
##협의회를
집중하는
가구에
불합리한
임창
쪽이
거두며
넘기는
밟고
루이스
문구
축사
##이므로
판매되는
당사자
회원이
##스타인
##ood
모노
거머쥐
울려
##인으로서
##스텔
기초생활수급
유도하고
회의가
중저가
기대감
##하시는
해운대구
볼턴
자리는
##인삼
교육지원
가량을
외환은행
출혈
##날이
경상북도
무한도전
##신경
제한하고
중단됐다
사우스
나비
몫을
##사로서
발렌
표명했다
규정했다
##재활
전쟁이
경위를
주최로
범위가
##상태를
우여곡
호황
##락에
느끼지
경복
동향을
택했다
##수업을
개정된
연계된
크기가
함으로써
합동으로
2군
획득한
6명의
GE
방법도
한국산업
이양
정당이
해결책을
허술
대마
##오피스
산타
예방과
2015년까지
신현
기득권
셰프
분야에서는
밤을
환자와
미흡한
스리
반갑
전화로
##보조금
물의
드럼
##종인
사이에서는
발언으로
도착했다
이공
재연
첨예
추산된다
1979년
체인
로보
있겠다
##소득이
화학물질
##전까지
국가인권
복수의
구민
축구를
사업부
PD는
날은
이르고
##부인과
##반떼
##쓰고
필요해
전시회를
예방할
7000
어리
과거에는
GS건설
볼을
##기관에서
나라에서
다스
삼겹
10회
나섰지만
##되나
가열
상품과
벗어날
7월까지
자격증을
저널
좋다는
대구와
매물
##든다
그렸다
카라
원산지
동국대
구매를
팬츠
다문화가정
##있었다
근무하고
김구
해리
독자적인
공기를
했어요
개선된
섞인
##생으로
무시한
싶다고
상승률을
##레스트
진출이
시각도
눈치를
##업체들의
거는
폭풍
##물품
##치료제
##시장으로
행정부의
##진흥공단
평가에
스토어
해수욕장
추이를
없었다고
##수첩
##공연을
모색하고
운전자가
Ar
전화가
##레븐
업체로
뭉쳐
제각
##이온
##사회는
##수술을
##위원을
전략에
덩달아
안정성
합격자
입법예고
올해까지
6월에
유수
4로
건물의
양호
육박하는
기기를
변수로
됐을
마냥
##신고를
##교육에
바나
에티
방제
안에는
직원들
건보
집중된
방수
도비
주체가
드러내는
금지하고
찍는
고용을
웨스트
##척이
자신도
롯데월드
000여
양동
로부터
표절
##나물
초까지
득점을
충원
1박2일
대인
##ME
공세
##ib
##2000억원
염색
1200
흡입
모더나
2월까지
##ment
섭외
통폐합
실었다
관계는
끊어
용병
해보
제작사
기초자산
조합장
상여
지급된다
선사했다
##소장
부분에서
##숨에
동성애
10명이
언제까지
냄새가
에드
제공되는
부산과
추신수는
제거하는
부위원장
축제는
차장은
##부두
10곳
바뀐다
눈과
##만9000
##전국
수렴해
예견
##내를
##정산
지혜를
영등포구
갖출
##러는
##들지
포진
학위를
요트
통계청
박물
알선
##청소
없어도
잠재력을
##숭아
아낌
필라
##달을
##단체와
##사회적
로그
확진된
음악이
윤영
KB국민은행
죄송하다
##규모는
치렀다
뒤처
##계획이
살았다
##절감
가창
##러스트
시각을
##수익을
##하기까지
기대되고
조성될
전라남도
##세대를
고령자
서장
##위탁
##선생
과정과
치르
때를
감행
적성
30억
두뇌
음향
##는다면
수입은
##만7천
자문을
##안타를
입장문을
판매는
##씨도
앞다퉈
숨지게
살이
복지부
약세를
##딩을
토론회에서
높았고
##가이드
예상을
다이아몬드
##책은
SF
유니버
인천시가
가능하다고
광주광역시
안양시
지정돼
단체장
##본은
##혜택을
경전철
유례
원희
##워야
카이스트
이행을
짧아
25년
##사퇴
##15일
혼란이
한창이다
일감
섬진
기존에는
뭐가
유착
합참
거액의
의혹도
어둠
실외
의료관광
전후로
비위
성토
##만4천
금융위원회
연루된
법규
폐쇄회로
시행되는
목록
일몰
##수정
##인지를
레미
마련이다
달을
여드
사이드
조정이
##답을
비판한
슬림
##대왕
알림
옹진
이동해
격려했다
한국영화
시민참여
내의
##역세권
사유가
명실상부한
아이템으로
개발로
메시지가
과제는
심폐
##만8000
구상을
##공장에서
민족의
##시하는
골드만삭
100개
빈틈
페트
전국을
##ass
상대가
고소한
##크루
판단된다
이정현
##57
쓰면
포켓
앨범을
##랍니다
스포티
크리에이터
한샘
분양가는
벼랑
##기온은
##종과
역대급
##하려던
볼륨
MBN
##세일
##과정에
1만4
증가율은
1면
준법
##습관
##act
##보레
단숨에
싶을
##나들
넷째
부당하게
사회로
얇은
꼽은
##충돌
호랑이
때문인
음주운
##살인
화면에
임성
패소
전략은
최대주주
##가스를
습관을
##령은
일컫
행태를
뜻깊은
낯설
가성
행정부가
어려움에
##6개월
논란과
연출을
##51
##질과
4일까지
##ㆍ고
식재료
광주전남
1도
결과와
시도한
##골목
집계한
전망은
각인
진지하게
##92
##감정
20세
찾아왔다
실형을
##ex
초저
형사처벌
역임했다
JY
##00만원에
투입된다
인선
기관을
당선자는
호소하고
예고한
참여정부
50억
평택시
콘셉트로
대신증권
##특별법
##바위
여름방학
지금부터
어필
##메뉴
가덕도
##가량의
직접적으로
##사회에
사무국장은
##인데다
원서
물밑
청소년을
마사지
##하키
문제점이
장기적
총학생
모니터링을
12개월
분양에
가할
장안
##듯한
구분해
놓지
자재
몸으로
부끄럽
KEB
교육환경
생각한
지금이
센터를
허위사실
총리를
통과를
양구
출격
##경쟁력을
같습니다
맞이한
있는데도
P2
혼다
##층으로
참여와
결혼이
목숨
##9개
##게도
욕설
시뮬레이션
항해
전현
5시간
##81
평소보다
의견수렴
말하기
구슬
지칭
##라디오
바다에
종업원
경남지역
승무원
지역이다
고객에게는
근무를
##회에서는
기흥
햇볕
배우들이
행사의
나서기로
백인
기술력과
더불어민주당이
똑같
문구가
##오페라
작용한
제외된다
마쳤
숫자가
마실
##행에
착륙
포드
##상블
한국인의
기업도
장편
부산시가
정당의
영어를
기회도
문구를
연기에
##역할
현대화
행정구역
학교로
정부서울
격인
친구들
영리
##니얼
웨이브
Cl
2박
옥수수
다가왔다
반기문
분양한다
최소화할
문체부
안병
경북의
갈등의
낸드
##광다이
치우
적용한다
고발했다
인권침해
보탰다
분향
취지에서
후보자에
퇴장
##김없이
##치킨
내부적으로
구미시
3000여
시즌이
어렵지만
업계에서
수협
증가를
질환을
짧게
뿌려
따뜻하게
##문화가
임대료를
회의실에서
##이어티
농촌진흥
##피는
##임은
신고리
넷플릭
답이
주요국
혼잡
사람에
언젠가
만장일
##패가
지지율을
이춘
##사장
풀고
##의학
등에서도
##다오
##ant
체크카드
시화
아프가
##냈던
통해서도
모델의
매장에
거쳤다
용서
##신호
만들어내는
스무
연장을
참석한다
회장에
9단
##문제가
1960년대
금융당국이
옥션
##자립
2018년부터
해병대
모드
자활
대대적으로
약국
김두관
제격
지켜보는
운행을
명인
준설
제3의
양심
호재
둘은
질서
컨퍼런스
규모도
울트라
과실
일었다
간병
한국타이어
제도로
한국도로
빛이
평가할
150여
최태원
상응
노사가
##드래곤
청년창업
설립했다
##공간이
전반의
나간다는
얘기도
중단했다
패배를
보여주기
계좌를
##초교
##발언
거리로
##기금을
보고했다
여러가지
##사각
비축
통화정책
달서
살리고
부속
예약을
학교급식
GS칼텍
2일까지
##ff
##겠는가
1984년
친환경차
특산물
건설업
충격이
지각
거치면서
내한
피곤
사람이다
##스케이팅
엔진을
삼성화
##실히
때문이
16년
베팅
들어서면
특사
토니
설명할
고루
보이기
내연
##키아
스프링캠프
법정에서
2경기
스포츠토토
꽃이
미끄러
유희
지검
##도도
추가됐다
2조원
흰색
진열
##화상
강동구
연방준비제도
노예
##발전에
수치가
##93
국립중앙
##시했다
##학급
##통에
선에서
##라와
예산의
콘텐츠가
외교부는
##동생
농경
##사격
번거
칼로
##보건소
직원들과
##가들이
실크
증진을
##ance
B2B
굵직한
주도적으로
3월에
자체에
##광다이오드
흔한
실천하고
이슈로
수사와
매출과
공무원은
조정했다
뚜껑
판단하는
주택공급
17년
계속된
맺어
합치면
사외이
화물차
당선인
자리잡고
완료한
현금으로
좋아요
##하곤
편리하다
화석
중심을
관영
지점을
보낸다
성황리에
불편함을
임시국
실은
동쪽
##근이
패턴을
강간
공모주
1970년
8대
창구
##속의
농산물을
##물인
드레
엔화
주문을
역동적인
##움에
삼양
마중
EPL
관객이
세정
1차전
대미
아이와
이닝
워싱턴포스트
김일성
지리적
열기
##ust
막강한
디스
상점
##실한
##립대
장의
정류
##었는지
전환할
금고
기업들
G마켓
NF
##겼던
도구
영원한
연재
##느냐에
##맥스
##공은
노사정
극단적인
옮김
많다고
의사결
대상자는
결정하고
나눔의
앞을
침략
비상장
일궈
불안을
허벅
공개를
생산과
장애를
미친다
언론인
노동자들이
##능력시험
붙잡혔다
부드럽게
##등이
##3000억원
남아있다
맥도
용품
필요성에
구체화
##마을을
광명시
계획으로
차지했고
70년
나스닥
없으니
##오카
양국이
접전
치르고
부장판사는
정종
##만9000원
##겠어요
##내면서
##그룹과
인지도를
거점으로
방콕
건조한
당면
앞뒤
##축제는
탑재해
##느냐는
한나라당의
수지
코인
싶습니다
열정과
##피안타
투자자가
약세
기초자치단체
가나
600만
##의약
##오토
4월에
올해부터는
자유선진
올리브
고온
##t을
있었습니다
사진은
조인
전망치를
아나운서
마땅한
이우
일어나고
작업은
두각을
비즈니
재무구조
기획했다
박선
복귀한
비어
반영했다
펴고
대한민국이
관행을
이용섭
##변호사
보직
피고인이
이렇듯
돌리는
출시했다고
2㎞
##패에
##사업체
노린
충성
시민은
관절염
##채가
##대결
##복구
묻어
발길을
##세대가
면적이
식중독
은은
##일로부터
마무리할
출동한
##가던
##조각
##과제를
##관리위원회
스님은
여럿
##사항이
행정을
장난감
##3회
성실히
농수산물
당하는
##만3천
무차별
미처
지형
##겼고
작지만
아산시
판결했다
12억
쏟아지고
펀드의
4차례
JP
##교육은
##사회가
높기
도로가
하였다
현대차가
대에
수립해
기술이다
학부모들의
방산
##율과
송정
웃는
세이브
비빔
손질
작용하고
예타
이사를
추월
김건
수락
동산
역사는
워크아웃
롯데쇼핑
태극기
압력
항목을
모아지고
구애
푸짐
아키
##마로
##GW
##거주
정치권에
그녀가
들어섰다
등록한
미팅
몸무
사표를
초기부터
국제통화기금
유감을
감사원은
##만6000
##자들도
##모닝
그러던
노력도
##포가
입어
증가율이
하계
점유율이
대표팀의
승률
하와이
부동산을
조선의
박지성
도자
발견하고
소상공인의
발굴을
생계를
콜라보
방대
아버지와
발표될
부담도
##보단
증시는
##요리
갈등과
##강이
경우엔
전환에
환전
국민체육
##시설에서
제기하는
단체전
걱정하는
##행사가
지점에서
순항
준비된
건물은
시상식에서
##연구소가
금리인
활용을
##마르
##우회
15억
치명적인
지질
잠수함
일상의
가입자가
예전에는
채택했다
유산균
지식경제부
대단한
##현안
간직
##선관
체감할
혁신의
왔지만
##유적
할머니가
##테롤
형성하고
8시간
점수가
효과로
##초에
정보보호
##어린이집
이전의
평창올림픽
##차익
##행사로
##완전
팽팽한
##회사는
누리과정
평을
여기저기
서쪽
##원도
##라서
주기적으로
구하는
벽에
##플라이
3번째
맡기
수개월
모스크바
버팀
푸는
##댄스
##ICE
배경에는
도당
한다며
##봉사단
##중기
1983년
석권
전시관
같지만
각광받고
수사는
기자와
인정받
원료로
서비스인
맞추기
무기한
새우
교차로
열연
##t의
화훼
맞추는
##설턴
많았지만
미만으로
사의를
권력의
노력은
콘텐츠로
하노이
NO
꿈나무
경합
금융당국
올레드
통틀어
특이
아사히
치솟았다
꿈은
섬세
떴다
경기도에
완료할
트로트
목재
행정명령
스타일리
##천동
의사결정
아반떼
올라와
##심도
피지
추정하고
옆에서
##조원에
##는다고
##뿌리
멤버들은
UE
수서
##앤드
111
제4차
양상이다
여유를
123
면적은
질문이
뒤흔
열띤
쌓아온
살면서
차량으로
주력할
##00원으로
기호
고용창출
정원을
일쑤
마그
원년
울산은
##할수록
호기심을
입구에
##연구회
대본
선정됐다고
하더라
##평생
확대된다
종합하면
촉각을
원희룡
빠뜨
##세라
##공원은
역사적인
농가의
이용자의
적기
정황을
과제가
조지아
2차전지
500억원
지역아동
규제로
##수목
올라가는
1일까지
위축된
따르
떠안
울산지역
간식
편성해
근로기준
##중국해
신한은행은
우체국
한국마
##오늘
중앙재난안전
천연가스
주소를
누구에게
##왔는데
내정자는
분양한
도움으로
창간
없는지
공모사업
경질
##지구로
카드로
예산결산
당헌
##아일랜드
4월까지
경제와
도시가스
산을
열매
##만4000
괴물
커브
단체의
사용된다
아닌데
보험금을
일상에서
전망치
연구용
염증
남해안
##예측
전환해
존재를
부위에
비율로
공권
투입할
견줘
##로에서
SK바이오
개각
2이닝
연구와
사업추진
기대해
추석을
얽힌
일이었다
온통
절망
##경제인
우월
출렁
갇혀
##리거나
340
##슬림
지나는
연구기관
추천하는
낫다
한진중공업
후원금
수식
예배
인사에
##공원에
##필름
거장
다가올
세미
영광을
발행한
처리에
공공의
##일레븐
서강대
가뜩
급속도로
양측의
늘리기
갖춰져
물적
##주의적
연기로
접어든
상승률은
하원의
##건조
급증하는
차는
##공장은
LCC
계정
한국산
계약금
추정했다
예고하고
대타
100주년
EN
포화
사이트에
노려
세계선수권
사단법인
##워치
##내용을
하트
##nt
##토크
##연승을
마련하겠다
##양식
2005년부터
##갈이
##하기만
문예
##평가는
가져온
청년이
이름의
##오의
맹활약
가뜩이나
짜릿한
이견
##출자
팀으로
손해보험
특목
자연환경
사전투표
다음과
캠페인은
신생아
리빙
운전면허
개봉한
WBC
##소수
현황과
##상태에
못지않은
의제
##레스테롤
채로
파트너십을
멸종위기
방화
##링을
##마을은
당당하게
분양권
레전드
##총장
한번에
모태
3세
코엑스
##터테인먼트는
니켈
##사업장
창업자
아들은
퍼포먼스를
관계자와
탁구
##성형
##도로를
제시해
전전
이야기도
인정해
소속팀
지식산업
사라지는
사소한
##발레
미치
사용하기
브렉시트
##ly
했는지
##론의
부동산114
NYT
3경기
선발해
성과급
DC
어느덧
골절
##퓨팅
7번
드라마의
##예선
악기
지방의회
##률과
##문화회관
시달리고
치중
일제강점기
재개를
주었다
심혈을
불이익
##예산을
모색하는
다음에
##만5000원
##카와
홍보대
출발했다
한국거래소에
##챔피언십
잠재적
AM
물꼬
센텀
##연구센터
넘길
생략
##터와
5월에
보았다
대장암
형식의
고맙다
원재료
말처럼
##에프
정태
상황도
가든
8월에
불안정
1만6
여객선
코스피는
Wor
베어
##료품
폭증
##위원장으로
소치
헝가리
경선에
NBA
개인정보를
조성하기
잔뜩
확장을
선뜻
운영의
소통할
신한금융투자
재일
##득점을
부과하는
##해선
6시간
##매각
상품권을
구속영장
공감하고
국민건강보험
##슨의
스며
예산에
##비상
##분야의
삼은
##례로
##러를
수준이었다
방법에
동급
포인트가
분위기에
신설했다
양키
책임질
가파르게
행사다
빠지지
생각하며
##송이
송도국제도시
OP
##토벤
대화와
방통위
불법으로
런던올림픽
모텔
묶여
파면
##잔치
쿠폰을
고취
분류되는
##과학원
응답한
로스앤젤레스
컨트롤타워
자신은
##유도
띄었다
번이나
이어가는
##기본소득
아프가니스탄
As
조용한
펴낸
##해상
전역에
1억원을
##설명회를
각급
특구
1만8
외형
20세기
##ence
그간의
농도가
주얼
##6000억원
##거리다
소속된
행복하게
토크쇼
플래그십
외상
전의
최문
공청회
##FF
기록이다
##RC
1000원
연이은
독주
통상임금
접목해
PS
##연구원의
누리집
계명대
풍력발전
선관위
귀촌
대구시와
대나무
안팎으로
물질을
우선순
지켜보고
중앙당
GPS
가족들의
순서
허용했다
정보공개
##리케
역사문화
파행
##곡이
아이패드
추세가
국민청원
해수부
관람할
선후
구성되어
아니며
살아나
동요
대검찰청
##동아
전망에
##일자
##000억원을
행사할
소련
지하수
간격으로
비롯된
요동
##쿠폰
현재로서는
검단
친구를
##오기
보리
##통신에
드러나는
통치
월등
A씨와
프란
개막전
##차고
너머
당국에
유머
진작
자존심을
무혐의
때문입니다
첨부
##항의
당선자
##피크
상승폭이
##회의가
##심리가
##론으로
언론들은
집은
##차이나
으뜸
신청해
LH는
##본부에
머무는
물고기
도자기
##무대에서
##전통
드라
쌍둥이
주석은
##중재
혼자서
택한
공공기관이
명목
손이
##마와
임산부
손꼽히는
우려에
조선업
앉은
넘어섰
않았는데
전파를
네티즌은
군과
정식으로
탈피
##축제를
내면서
##산에서
범죄에
국면
##법인을
##VE
압도적
사흘간
시즌에
답변이
전수조사
##블로
차단하는
나라에
검사의
##구속
선교
검토하는
자율주행차
근처에
네가
##대까지
이외의
여부도
##율로
반영됐다
CJ대한
경청
##문제에
행정력을
##대도
##컴퓨터
개발도상
다시금
귀환
싸우
속이
스마트폰에
2건
촉매
머니
숙련
성숙한
문정
배급
시위가
##A는
육성하고
일방적
웃으며
애리조나
베토벤
탄생했다
초과하는
700여
시동을
에너
조광
말만
신앙
전쟁의
가족들은
규제에
자유로
위암
정계
해적
##지지만
공정을
기업에서
간과
로또
갖지
핵무기
엘지
요미
스터
##운동이
달았다
파이널
시스템의
의사소통
지역사회와
옥외
걸러
적당한
연휴를
변모
이니
달라지는
붙었다
4차산업
메르켈
숙제
침착
가구당
복합문화
맞섰다
소속으로
현실과
특성화고
##란도
사활
겸손
동상
졌다
요구해
하이라이트
가이드라인을
복직
주목해야
##연속
구의
추대
##류와
전이
##억5000만원
##하자면
조심스럽게
임직원이
건수
세라
먹지
후기
명의의
공연에
사항이
대한상의
출석해
운명을
##net
2관왕
우리은행은
기사는
돌풍을
##어리
말라고
올라간다
역임한
시행해
전략공천
공감대가
##모리
정규직으로
##장소
##방식으로
평소에
뿌리를
전망됐다
주효
확산이
그랬다
정상이
##시대에
##베스
##펀드를
합류한
##평가에서
##ith
기생충
복선전철
5도
##아시안
서재
개정해
중도금
보살
##정차
참가를
##진행
SI
시스템과
##명도
팝업
경제적인
도전장을
의사의
##표는
##주의에
SD
무더기로
넓히고
콘퍼런스
갈등은
페루
홍보하고
##디가
##연구원에
전월세
고민해야
##틀랜드
반영하지
쉬워
##ge
더한다
적잖은
##학교에
직업을
##패의
시작돼
채권을
##SK
황우
서울이
액세서리
엔트리
유신
이후부터
미르
정상을
##제도의
이룬다
되레
교량
철회를
##관리가
쓰인
일대는
오늘도
포스코건설
교민
데이터베이스
군청
위약
부경
아동의
##ore
산부인과
원씩
이마저도
존엄
피츠
출연을
안팎에서
귀추가
올해보다
150만
의미는
남아프리카
개포
임직원들이
전략과
격차는
대학수학
행동이
회사와
원까지
완판
대기업에
DTI
심리가
행복주택
연립
##될지
단지로
##형제
의심되는
독거노인
개체
논의는
두터
서점
빅데이터를
라이프스타일
##관도
태광
이벤트가
통역
##시스템에
명예회
달하고
##은희
##범을
##업계에서는
애로사항을
관장은
함안
##공원이
부르며
상큼
비방
안도
호조
가천
동굴
10만명
문화콘텐츠
제작진
경제부총리
세트를
플랫폼으로
##만들기
전적
직원에게
국방부가
##음의
관계로
유치해
나쁘지
곤두세
도에
##농민
행정자치
1학기
##입국
일본으로
비리를
어려웠던
##뮤지컬
기부를
검사에서
레이싱
연맹
대처할
재건
돋보인다
안티
ID
살처분
한수원
쓰인다
##FTA
책이다
27개
##과에
사실로
##결의
##격은
닷새
연출한
증평
##했죠
관측된다
객관적
아쿠아
화이
한국철도
뇌물을
돌풍
##병원과
성수기
##마에
효과적이다
교체를
브랜
평론
박해
시절을
코팅
지적하며
조성돼
확정한
가겠다
선비
한약
사고의
초점이
##cc
청년의
확고히
188
줄었지만
제3차
3호
전만
현재로선
다변
도입이
궁금하다
게임은
1000억
##무형
노선이
##빈이
##갈비
참가한다
달러의
반복되는
방송에서는
렌탈
##업체로
학교생활
당위
118
출시해
##청장은
##ook
인천에서
거부하는
김여
역량이
무대는
동국제
본점
빅3
언론과
서명을
업종의
개정에
악몽
힘들고
기대와
대책에
매입한
구단의
드루
장학생
후지
##조선해양
괜찮은
안락
##뉴타운
디저트
##발굴
수영장
4명은
항일
농작물
##하게도
수소연료
불완전
##매수
역삼
정도만
움직이고
파생상품
조윤
지정됐다
안쪽
밝혀야
누나
##소환
##았어요
당근
제시한다
##경찰서에
조정하는
올인
##근한
전투기
바라보며
광산구
지원사업을
음성군
구입해
점검했다
교사들이
남편은
관공
부위를
영업정지
공무원을
외쳤다
##아라
요구한다
조성했다
G7
국수
##원으로서
버거
양당
저비용
##드립니다
활동할
개성을
##저스
환경의
무관하게
행안부
줄면서
책상
##출연
공공임대주택
공교
하루하
인피니
다문화가족
논의한
COVID
재정을
트럼프의
작가와
##6일
##생태계
걸림돌이
1만2
보금자리주택
탄도미사일
##7000억원
황정
규제개혁
등에서는
후보도
절반에
변호사를
동포
타이틀을
서울지역
127
##볼넷
정치적인
공동성
마무
친척
공장은
290
시청자들에게
가량이
취업준비
운운
채운
들의
종전선언
라이온
9명이
통합해
##했음을
##표시
2007
##비율을
상승하고
억압
행위로
생활의
정권에
신설하고
에선
정부로부터
의결을
평가와
B씨가
저격
장터
##기업들이
특별수사
의존도가
나타났다고
다하는
##t으로
##방송을
5명을
인체에
미생
##EM
이연
##거티브
지배적이다
운영하면서
불문
##시브
필요하고
##힘을
동방
설치가
금년
스마일
실세
##체육관
슬로건
##테마파크
교사와
아찔
감각적인
돼서
차질없이
145
요구되는
해수욕
가능해진다
선거운동을
KEB하나
직구
함부로
웨어러블
인사와
출시한다고
달인
가지로
자행
소득공제
포기할
##발사
골프를
발간한
진상규명
##마리가
##문고
##히트
활동의
손바닥
##PM
리얼미터
인권을
현지에
체인지
유지해야
후원하는
5세대
못했다고
숙명
##톤의
우린
이것을
지주회사
선진화
##파이어
##TRA
성과에
트라우
##2차
극한
자위
주문이
on
##조약
선불
3관왕
침체로
볼거리를
정기예금
##화장품
생필품
곡물
하려
##코어
다리가
9월에
##들며
##배달
이전까지
제도개선
노린다
##반도
##I는
14명
급등했다
자고
##받아야
깊다
##성모
채권단
##론과
아니더라도
불확실성
##서스
원주민
##7일
##좋은
##전시회
설명이
몰라도
찾아내
1981년
##m에
같다는
문화에
PC방
로컬푸드
월화드라마
지원된다
##주의가
상업용
##침에
러시아가
김영삼
10월에
##창구
심리를
형성돼
철광
여자친
행동으로
##생활건강
작가들의
배기
##4000억원
절친
시설의
건지
##라노
##프스
##설치
방식과
변하는
FA컵
김철
최우수상
연설에서
대변인이
연수를
거리에서
올랐던
경신했다
제반
##중심의
자연재해
##절기
300명
진지한
지원받을
누비
밴쿠버
할인을
##란은
인도적
편의시설
아이디어가
높여야
과거를
힘쓰겠다
디딤
정윤
아시아의
4분의
실수로
연구용역
구단은
##정류
입주한
진로를
##샷을
쪽에서
2006
포괄적
가족들과
논의에
정무수석
위태
##모니
144
고객들은
한명숙
##사업도
##지도자
##하였으며
##특산물
##특수
기초연금
##내역
##적십자
ㄱ씨
패스를
##제도는
추진되는
과거사
SSM
##기관리
7배
난항을
##미르
네거티브
손잡
사유로
유격수
트럼프는
암살
뒤에서
흔적을
공개하며
##m로
##현장을
##료와
제각각
주가를
만성질환
통째로
일어나지
경기의
정쟁
##녀의
모양을
공고히
낮아진
##원칙
11만